{"target_vocab_size": 3000, "pad_token": "<PAD>", "pad_token_id": 0, "vocab_size": 2262, "tokens": {"0": "<PAD>", "1": "00", "2": "01", "3": "02", "4": "03", "5": "04", "6": "05", "7": "06", "8": "07", "9": "08", "10": "09", "11": "0a", "12": "0b", "13": "0c", "14": "0d", "15": "0e", "16": "0f", "17": "10", "18": "11", "19": "12", "20": "13", "21": "14", "22": "15", "23": "16", "24": "17", "25": "18", "26": "19", "27": "1a", "28": "1b", "29": "1c", "30": "1d", "31": "1e", "32": "1f", "33": "20", "34": "21", "35": "22", "36": "23", "37": "24", "38": "25", "39": "26", "40": "27", "41": "28", "42": "29", "43": "2a", "44": "2b", "45": "2c", "46": "2d", "47": "2e", "48": "2f", "49": "30", "50": "31", "51": "32", "52": "33", "53": "34", "54": "35", "55": "36", "56": "37", "57": "38", "58": "39", "59": "3a", "60": "3b", "61": "3c", "62": "3d", "63": "3e", "64": "3f", "65": "40", "66": "41", "67": "42", "68": "43", "69": "44", "70": "45", "71": "46", "72": "47", "73": "48", "74": "49", "75": "4a", "76": "4b", "77": "4c", "78": "4d", "79": "4e", "80": "4f", "81": "50", "82": "51", "83": "52", "84": "53", "85": "54", "86": "55", "87": "56", "88": "57", "89": "58", "90": "59", "91": "5a", "92": "5b", "93": "5c", "94": "5d", "95": "5e", "96": "5f", "97": "60", "98": "61", "99": "62", "100": "63", "101": "64", "102": "65", "103": "66", "104": "67", "105": "68", "106": "69", "107": "6a", "108": "6b", "109": "6c", "110": "6d", "111": "6e", "112": "6f", "113": "70", "114": "71", "115": "72", "116": "73", "117": "74", "118": "75", "119": "76", "120": "77", "121": "78", "122": "79", "123": "7a", "124": "7b", "125": "7c", "126": "7d", "127": "7e", "128": "7f", "129": "80", "130": "81", "131": "82", "132": "83", "133": "84", "134": "85", "135": "86", "136": "87", "137": "88", "138": "89", "139": "8a", "140": "8b", "141": "8c", "142": "8d", "143": "8e", "144": "8f", "145": "90", "146": "91", "147": "92", "148": "93", "149": "94", "150": "95", "151": "96", "152": "97", "153": "98", "154": "99", "155": "9a", "156": "9b", "157": "9c", "158": "9d", "159": "9e", "160": "9f", "161": "a0", "162": "a1", "163": "a2", "164": "a3", "165": "a4", "166": "a5", "167": "a6", "168": "a7", "169": "a8", "170": "a9", "171": "aa", "172": "ab", "173": "ac", "174": "ad", "175": "ae", "176": "af", "177": "b0", "178": "b1", "179": "b2", "180": "b3", "181": "b4", "182": "b5", "183": "b6", "184": "b7", "185": "b8", "186": "b9", "187": "ba", "188": "bb", "189": "bc", "190": "bd", "191": "be", "192": "bf", "193": "c0", "194": "c1", "195": "c2", "196": "c3", "197": "c4", "198": "c5", "199": "c6", "200": "c7", "201": "c8", "202": "c9", "203": "ca", "204": "cb", "205": "cc", "206": "cd", "207": "ce", "208": "cf", "209": "d0", "210": "d1", "211": "d2", "212": "d3", "213": "d4", "214": "d5", "215": "d6", "216": "d7", "217": "d8", "218": "d9", "219": "da", "220": "db", "221": "dc", "222": "dd", "223": "de", "224": "df", "225": "e0", "226": "e1", "227": "e2", "228": "e3", "229": "e4", "230": "e5", "231": "e6", "232": "e7", "233": "e8", "234": "e9", "235": "ea", "236": "eb", "237": "ec", "238": "ed", "239": "ee", "240": "ef", "241": "f0", "242": "f1", "243": "f2", "244": "f3", "245": "f4", "246": "f5", "247": "f6", "248": "f7", "249": "f8", "250": "f9", "251": "fa", "252": "fb", "253": "fc", "254": "fd", "255": "fe", "256": "ff", "257": "696e", "258": "7265", "259": "616e", "260": "6572", "261": "7469", "262": "656e", "263": "7573", "264": "6f6e", "265": "6573", "266": "6f72", "267": "7468", "268": "746f", "269": "6c6f", "270": "74696f6e", "271": "7665", "272": "616c", "273": "616e64", "274": "656e74", "275": "6f66", "276": "696e67", "277": "726f", "278": "666f72", "279": "6963", "280": "617265", "281": "7465", "282": "6465", "283": "6d656e74", "284": "7572", "285": "6162", "286": "6172", "287": "7477", "288": "746f6d", "289": "6f667477", "290": "6f667477617265", "291": "74696f6e73", "292": "76656c6f", "293": "76656c6f70", "294": "6c65", "295": "6174", "296": "76656c6f706d656e74", "297": "7573746f6d", "298": "6f6c", "299": "6368", "300": "7769", "301": "6973", "302": "6564", "303": "77697468", "304": "6f7572", "305": "766963", "306": "636f", "307": "6f6c75", "308": "4c6162", "309": "4c616273", "310": "736f6c75", "311": "7669636573", "312": "537573", "313": "53757361", "314": "537573614c616273", "315": "6e6f", "316": "736f6c7574696f6e73", "317": "65727669636573", "318": "657373", "319": "736f667477617265", "320": "7475", "321": "6d70", "322": "646576656c6f706d656e74", "323": "7070", "324": "6563", "325": "6967", "326": "7374", "327": "6174696f6e", "328": "437573746f6d", "329": "6365", "330": "7365727669636573", "331": "746865", "332": "6d6f", "333": "7573696e", "334": "7573696e657373", "335": "536f667477617265", "336": "4149", "337": "732c", "338": "6163", "339": "61626c65", "340": "6865", "341": "696c", "342": "4465", "343": "637573746f6d", "344": "657273", "345": "2020", "346": "446576656c6f706d656e74", "347": "6974", "348": "7472", "349": "7365", "350": "6e64", "351": "74697665", "352": "6f75", "353": "746572", "354": "6174696f6e73", "355": "70726f", "356": "726564", "357": "74656368", "358": "636f6d70", "359": "63616c", "360": "6578", "361": "6c69", "362": "617070", "363": "616e6365", "364": "706572", "365": "617465", "366": "6d73", "367": "796f7572", "368": "7563", "369": "6c6f67", "370": "627573696e657373", "371": "646573", "372": "7765", "373": "697665", "374": "6e6f76", "375": "656e73", "376": "6f6666", "377": "75696c", "378": "6173", "379": "6e6f6c6f67", "380": "746563686e6f6c6f67", "381": "616d", "382": "6167", "383": "6566", "384": "4352", "385": "75696c64", "386": "61727475", "387": "656374", "388": "6172747570", "389": "4f7572", "390": "736f6c7574696f6e732e", "391": "63616c61626c65", "392": "746563686e6f6c6f6779", "393": "6b696e67", "394": "617274", "395": "697479", "396": "616e79", "397": "43524d", "398": "7379", "399": "726f6d", "400": "7072", "401": "696f6e", "402": "74757265", "403": "6c6c", "404": "6f77", "405": "6e65", "406": "656666", "407": "6d65", "408": "6f6666657273", "409": "617274757073", "410": "616c7468", "411": "63617265", "412": "666f726d", "413": "74686174", "414": "697365", "415": "50726f", "416": "534d", "417": "456e64", "418": "7461", "419": "69676e", "420": "726f77", "421": "534d45", "422": "616c746863617265", "423": "69656e", "424": "6272", "425": "726561", "426": "7669", "427": "6174696f6e2c", "428": "737465", "429": "6675", "430": "706c", "431": "6174697665", "432": "7379737465", "433": "67726f77", "434": "6963616c", "435": "74696e67", "436": "69616c", "437": "496e", "438": "6973696f6e", "439": "706c6f", "440": "64657369676e", "441": "6472", "442": "6772", "443": "6d6f7265", "444": "696e6e6f76", "445": "746963", "446": "6175", "447": "697a", "448": "5765", "449": "5768", "450": "6e6572", "451": "766572", "452": "6865616c746863617265", "453": "74686572", "454": "6f7574", "455": "696768", "456": "7175", "457": "427573696e657373", "458": "63616e", "459": "792e", "460": "646576656c6f706d656e742c", "461": "732e", "462": "6164", "463": "7072697365", "464": "696c6f", "465": "7370", "466": "436f", "467": "7373", "468": "616e63652c", "469": "6174696e67", "470": "706c6174", "471": "757374", "472": "6665", "473": "696c6f726564", "474": "69636174696f6e73", "475": "596f7572", "476": "642c", "477": "696e7465", "478": "6d61", "479": "7375", "480": "657874", "481": "417070", "482": "6b65", "483": "67726f777468", "484": "70726f7669", "485": "66696e", "486": "706c6f79", "487": "6a656374", "488": "436f6d70", "489": "6765", "490": "69656e63", "491": "667574757265", "492": "636c", "493": "6d656e742c", "494": "6269", "495": "776f72", "496": "696465", "497": "7461696c6f726564", "498": "202020", "499": "6c69636174696f6e73", "500": "6465706c6f79", "501": "5374", "502": "456e", "503": "6c79", "504": "6172746e6572", "505": "6f6f", "506": "7363616c61626c65", "507": "5250", "508": "576879", "509": "7574", "510": "73797374656d73", "511": "4578", "512": "61726368", "513": "46726f6d", "514": "696e6e6f766174697665", "515": "726568", "516": "4275696c64", "517": "73742d", "518": "696573", "519": "636f6e", "520": "7473", "521": "73657276696365732c", "522": "66696e616e63652c", "523": "7572696e67", "524": "68696768", "525": "656e73697665", "526": "65647563", "527": "455250", "528": "436f6d70616e79", "529": "5465", "530": "647563", "531": "766973696f6e", "532": "6275696c64", "533": "64657369676e6564", "534": "6f776572", "535": "6170", "536": "62726561", "537": "796f75", "538": "6272696e67", "539": "456e746572", "540": "4368", "541": "726f7373", "542": "696e64", "543": "696e65", "544": "6472697665", "545": "6865616c7468636172652c", "546": "62696c65", "547": "776974686f7574", "548": "67656e", "549": "2d746f", "550": "2d746f2d", "551": "74696d65", "552": "656e737572696e67", "553": "726568656e73697665", "554": "5365727669636573", "555": "68656c", "556": "616765", "557": "757265", "558": "696e746572", "559": "54656368", "560": "616c697479", "561": "7374617274757073", "562": "6566666963", "563": "656666696369656e63", "564": "686967682d", "565": "496e6e6f76", "566": "43686f6f", "567": "43686f6f7365", "568": "6b2e", "569": "6465706c6f796d656e742c", "570": "726f62", "571": "726f62757374", "572": "6c6c6967", "573": "61726e", "574": "707265", "575": "666f726d73", "576": "63616e63", "577": "626f", "578": "627265616b696e67", "579": "6566666563", "580": "656666656374697665", "581": "4e657874", "582": "62616e", "583": "656666696369656e63792e", "584": "636f6d70726568656e73697665", "585": "7465616d", "586": "5374617274757073", "587": "456e7465727072697365", "588": "427573696e6573736573", "589": "5363616c61626c65", "590": "66666f72", "591": "66666f7264", "592": "7175616c697479", "593": "456e642d746f2d", "594": "64756374", "595": "6c696665", "596": "506172746e6572", "597": "68656c70", "598": "616e73", "599": "6578706572", "600": "646174", "601": "706c6174666f726d73", "602": "6175746f6d", "603": "6d616e", "604": "6d6f62696c65", "605": "736f6c7574696f6e732e2d", "606": "4170706c69636174696f6e73", "607": "534d4573", "608": "50726f6a656374", "609": "50726f6a6563743f", "610": "4166666f7264", "611": "4166666f726461626c65", "612": "636f73742d", "613": "636f73742d656666656374697665", "614": "534d45732c", "615": "686967682d7175616c697479", "616": "62616e6b2e", "617": "456e642d746f2d456e64", "618": "50726f64756374", "619": "6964656174696f6e", "620": "70726f7669646573", "621": "656475636174696f6e2c", "622": "6d6f72652c", "623": "496e6e6f766174696e67", "624": "6163726f7373", "625": "75737472", "626": "63657373", "627": "524e", "628": "524e41", "629": "776f726b", "630": "70706f72", "631": "66726f6d", "632": "617279", "633": "6179", "634": "64617461", "635": "2d62", "636": "61736564", "637": "63616e636572", "638": "65732c", "639": "756c", "640": "636f6d70616e79", "641": "636f6d", "642": "6f706572", "643": "756e", "644": "706f", "645": "2d6261736564", "646": "686574686572", "647": "496f", "648": "496f54", "649": "3132", "650": "70726f63657373", "651": "65732e", "652": "6976", "653": "616e616c", "654": "616e616c79", "655": "7265616c", "656": "736d", "657": "6661", "658": "2773", "659": "746563", "660": "61696e", "661": "52642c", "662": "696e6475737472", "663": "726f75", "664": "696e74656c6c6967", "665": "7472616e73", "666": "6c6561726e", "667": "637573746f6d6572", "668": "72657365", "669": "7265736561726368", "670": "737570706f72", "671": "57686574686572", "672": "617264", "673": "67656e6572", "674": "706572666f726d", "675": "6563746f72", "676": "6772616d", "677": "637265", "678": "6d6564", "679": "6f63", "680": "6f7065726174696f6e73", "681": "6672", "682": "747265", "683": "6265", "684": "697469", "685": "536563746f72", "686": "477572", "687": "47757275", "688": "477572756772616d", "689": "477572756772616d2c", "690": "48617279", "691": "48617279616e", "692": "48617279616e61", "693": "313232", "694": "31323230", "695": "546f776572", "696": "4d6167", "697": "64656c69", "698": "636c696e", "699": "696e74656772", "700": "656e67", "701": "6e656564", "702": "74696373", "703": "6d656e7473", "704": "277265", "705": "666163", "706": "7368", "707": "6f722c", "708": "5265", "709": "666963", "710": "64726976", "711": "7472656174", "712": "737570706f7274", "713": "6574", "714": "64656c", "715": "656e746572", "716": "7265616c2d", "717": "6f70", "718": "636f6c", "719": "6c6563", "720": "657374", "721": "61746564", "722": "73706563", "723": "4d61676e", "724": "4d61676e75", "725": "4d61676e756d", "726": "312c", "727": "387468", "728": "466c6f", "729": "466c6f6f722c", "730": "476f6c", "731": "476f6c66", "732": "436f7572", "733": "436f75727365", "734": "457874", "735": "3538", "736": "35382c", "737": "3132323031", "738": "313232303131", "739": "7765726564", "740": "6f66666572", "741": "65646765", "742": "696e6475737472696573", "743": "696e672c", "744": "756e64", "745": "756e646572", "746": "636564", "747": "41492d", "748": "6d65646963616c", "749": "697a65", "750": "6372", "751": "6c6162", "752": "76657279", "753": "5553", "754": "6974616c", "755": "7573696e67", "756": "636c696e6963616c", "757": "706572666f726d616e6365", "758": "736563", "759": "617469", "760": "726f69", "761": "637574", "762": "63757474696e67", "763": "627573696e6573736573", "764": "696e74656c6c6967656e74", "765": "676f", "766": "6469", "767": "616476", "768": "646967", "769": "736d617274", "770": "6c64", "771": "73797374656d", "772": "5468", "773": "656e64", "774": "7265616c2d74696d65", "775": "737472", "776": "416e64", "777": "6669", "778": "4f53", "779": "696e746572666163", "780": "747269616c", "781": "747269616c73", "782": "7363616c", "783": "7468726f75", "784": "7468726f7567", "785": "7468726f756768", "786": "656e6365", "787": "7472616e73666f726d", "788": "7572616c", "789": "7374616e64", "790": "64656c69766572", "791": "706f7765726564", "792": "696e746f", "793": "746f6f6c", "794": "616d6c", "795": "616e636564", "796": "524e412d6261736564", "797": "7265646963", "798": "6c6f77", "799": "636f6e74", "800": "636973696f6e", "801": "6d6f64656c", "802": "616363", "803": "555341", "804": "656e7465727072697365", "805": "61636b", "806": "776562", "807": "61707073", "808": "626f617264", "809": "746564", "810": "696d", "811": "627261696e", "812": "74656e", "813": "6172636869", "814": "6172636869746563", "815": "706c6174666f726d", "816": "6c61626f72", "817": "636f6d6d", "818": "416e64726f69", "819": "694f53", "820": "75736572", "821": "74756d", "822": "6279", "823": "63757474696e672d", "824": "63757474696e672d65646765", "825": "636f6d7075", "826": "756e6465727374616e64", "827": "726564696374697665", "828": "2774", "829": "7564", "830": "63686174", "831": "6f7573", "832": "696e73", "833": "6469676974616c", "834": "696d70", "835": "617368", "836": "6c6f6f", "837": "6c6f6f6b696e67", "838": "6162696c", "839": "75616c", "840": "616368", "841": "796f75277265", "842": "70617469", "843": "70617469656e74", "844": "6d6f64", "845": "726563", "846": "6d696e", "847": "636f6c6c61626f72", "848": "76696365", "849": "746865726170", "850": "6c696b65", "851": "637265617465", "852": "41492d706f7765726564", "853": "6f637573", "854": "6f7273", "855": "776f726b66", "856": "776f726b666c6f77", "857": "626c65", "858": "61626f7574", "859": "66617374", "860": "6576657279", "861": "6f6e65", "862": "64617368", "863": "64617368626f617264", "864": "67656e65726174696f6e", "865": "6e6f77", "866": "7570", "867": "6572732e", "868": "74696d", "869": "616c6c", "870": "616e74", "871": "617263686974656374757265", "872": "6970", "873": "69656e6365", "874": "5049", "875": "697a6564", "876": "61746567", "877": "596f75", "878": "6174696f6e732e", "879": "72657370", "880": "726573706f6e", "881": "3132323031312e", "882": "736f6c7574696f6e732c", "883": "792c", "884": "496e7465", "885": "616374", "886": "706c6f7265", "887": "736f6c7574696f6e", "888": "676f616c", "889": "656e68", "890": "64726976656e", "891": "666f637573", "892": "70726564696374697665", "893": "746963732c", "894": "656e67696e65", "895": "636f6465", "896": "6175746f6d617465", "897": "7768", "898": "6174696f6e2e", "899": "666173746572", "900": "616e616c7974696373", "901": "6163637572", "902": "696e636c", "903": "63686174626f", "904": "696e73696768", "905": "746963616c", "906": "776f726c64", "907": "697468", "908": "636c6f", "909": "776179", "910": "6f7074696d", "911": "6170706c69636174696f6e73", "912": "736563757265", "913": "7265647563", "914": "415049", "915": "6167656d656e74", "916": "636f6d6d756e", "917": "70726f6a656374", "918": "63656c6c", "919": "646973", "920": "646f", "921": "616476616e6365", "922": "6f72696e67", "923": "4954", "924": "7469666963", "925": "746966696369616c", "926": "686f77", "927": "616e67", "928": "636f6d7075746572", "929": "696e64757374726965732e", "930": "4578706c6f7265", "931": "656e68616e6365", "932": "746561", "933": "7465616d73", "934": "4164", "935": "746563686e6f6c6f67696573", "936": "6964", "937": "62657477", "938": "6265747765", "939": "6265747765656e", "940": "72656164", "941": "7265616479", "942": "6c656164", "943": "766f6c75", "944": "766f6c7574696f6e", "945": "6a757374", "946": "756d616e", "947": "617373", "948": "61636375726163", "949": "6175746f6d6174696f6e", "950": "53555341", "951": "63726561", "952": "696d70726f", "953": "746976", "954": "746976697479", "955": "6d616b696e67", "956": "676574", "957": "74726561746d656e7473", "958": "636c69", "959": "636c69656e74", "960": "6465746563", "961": "646574656374696f6e", "962": "6d6f7665", "963": "546865", "964": "6f726b", "965": "64657669636573", "966": "6c656374", "967": "61626c", "968": "646576656c6f70", "969": "696e74656e", "970": "656c", "971": "657870657269656e6365", "972": "6c6f63", "973": "6e74", "974": "7475616c", "975": "75696c74", "976": "69666963", "977": "61726b65", "978": "7068", "979": "76656c", "980": "416e64726f69642c", "981": "696e7465726661636573", "982": "5361", "983": "536161", "984": "53616153", "985": "6c6175", "986": "6e6368", "987": "6f66666572696e67", "988": "6e657267", "989": "4865", "990": "4865616c746863617265", "991": "496e74656c6c6967", "992": "7472616e73666f726d696e67", "993": "73747265", "994": "6f7265", "995": "65787065727469", "996": "657870657274697365", "997": "73746172747570", "998": "706172746e6572", "999": "6465636973696f6e", "1000": "68756d616e", "1001": "66756c6c", "1002": "706c6174666f726d732e", "1003": "746f6f6c73", "1004": "616c73", "1005": "6c6561726e696e67", "1006": "70726f63657373696e67", "1007": "74726163", "1008": "747261636b696e67", "1009": "6e6577", "1010": "4173", "1011": "6e657874", "1012": "636170", "1013": "64696e67", "1014": "746573", "1015": "636f6e6e", "1016": "6e657572616c", "1017": "496e64", "1018": "4578706572", "1019": "72657373", "1020": "646179", "1021": "7365637572652c", "1022": "7572697479", "1023": "65726e", "1024": "70726973", "1025": "746563686e", "1026": "7365616d6c", "1027": "7365616d6c657373", "1028": "436f6e", "1029": "7562", "1030": "5472", "1031": "76696e67", "1032": "766972", "1033": "7669727475616c", "1034": "7370656369616c", "1035": "76657273", "1036": "537573614c61627327", "1037": "57686174", "1038": "696e6b", "1039": "646564", "1040": "694f532c", "1041": "73796e", "1042": "666972", "1043": "6261636b", "1044": "646576696365", "1045": "6d6f6e", "1046": "6c61756e6368", "1047": "7370656369666963", "1048": "616e74756d", "1049": "4d6f", "1050": "746172", "1051": "67656e65726174697665", "1052": "73686f77", "1053": "70617469656e7473", "1054": "74686572617079", "1055": "636f6c6c61626f726174696f6e732e", "1056": "656c656374", "1057": "656c656374726f", "1058": "636f6d62", "1059": "616e6775", "1060": "616e6775616765", "1061": "4c65", "1062": "696e74656c6c6967656e6365", "1063": "657870657269656e63", "1064": "656d70", "1065": "646f63", "1066": "73747265616d6c", "1067": "73747265616d6c696e65", "1068": "74696f6e616c", "1069": "66726f6e", "1070": "64696167", "1071": "646961676e6f", "1072": "646961676e6f73", "1073": "6572696e67", "1074": "62696f", "1075": "6275696c64696e67", "1076": "466f72", "1077": "74726561746d656e74", "1078": "6174757265", "1079": "61792e", "1080": "736d6172", "1081": "736d6172746572", "1082": "6d6f64656c73", "1083": "656172", "1084": "707265636973696f6e", "1085": "696f7573", "1086": "696e736967687473", "1087": "6577", "1088": "757365", "1089": "63726561746976697479", "1090": "70726f626c65", "1091": "73756c", "1092": "646f6e", "1093": "646f6e2774", "1094": "73797374656d732e", "1095": "696e636c75", "1096": "616c67", "1097": "616c676f72", "1098": "616c676f72697468", "1099": "676f616c732c", "1100": "6570", "1101": "6e6578742d", "1102": "6b6e6f77", "1103": "6c6564", "1104": "6d6f76656d656e74", "1105": "6163686573", "1106": "636f6e6e6563", "1107": "70726f76696465", "1108": "636c6f7564", "1109": "6f726b73", "1110": "697374696e67", "1111": "7365637572697479", "1112": "6d6f6465726e", "1113": "707269736573", "1114": "746563686e6963616c", "1115": "6465706c6f796d656e74", "1116": "636c61", "1117": "72656475636573", "1118": "6c6f636b", "1119": "6974697a", "1120": "6d616e6167656d656e74", "1121": "6275696c74", "1122": "537472", "1123": "73747261746567", "1124": "696373", "1125": "636f72", "1126": "6d61726b65", "1127": "54686174", "1128": "486f77", "1129": "656d61", "1130": "656d61696c", "1131": "3330", "1132": "6465646963", "1133": "646564696361746564", "1134": "64726976696e67", "1135": "616476616e63656d656e7473", "1136": "742c", "1137": "656e73757265", "1138": "7369", "1139": "74696f6e2c", "1140": "726573706f6e7365", "1141": "776565", "1142": "7765656b", "1143": "6c6174", "1144": "61726564", "1145": "62696c", "1146": "636f6e74726f", "1147": "5052", "1148": "6972", "1149": "66616365", "1150": "746172676574", "1151": "73796e7468", "1152": "73796e74686573", "1153": "63656c6c73", "1154": "74756d6f72", "1155": "416476", "1156": "416476616e636564", "1157": "506f", "1158": "676c6f", "1159": "676c6f62", "1160": "676c6f62616c", "1161": "7461696c", "1162": "7461696c2c", "1163": "7363616c65", "1164": "746563686e6f6c6f67792e", "1165": "4172", "1166": "496e74656c6c6967656e6365", "1167": "6d616368", "1168": "6d616368696e65", "1169": "6e6174", "1170": "6e61747572616c", "1171": "6c616e6775616765", "1172": "64656c69766572696e67", "1173": "656d706f776572", "1174": "696e74656c6c6967656e742c", "1175": "2d64726976656e", "1176": "6167656d656e742c", "1177": "67726f7774682e", "1178": "616476616e636564", "1179": "69732e", "1180": "746563686e6f6c6f676965732c", "1181": "62726964", "1182": "6a6f7572", "1183": "6a6f75726e65", "1184": "6a6f75726e6579", "1185": "66726f6e7469", "1186": "7361", "1187": "7363616c696e67", "1188": "7265766f6c7574696f6e", "1189": "676c65", "1190": "6172746966696369616c", "1191": "6e2774", "1192": "66656174757265", "1193": "6f756e64", "1194": "41492d64726976656e", "1195": "616374696f6e", "1196": "697374", "1197": "437572", "1198": "616d65", "1199": "756e69", "1200": "736f6c", "1201": "70726f626c656d73", "1202": "7573657273", "1203": "6c6578", "1204": "73756c74", "1205": "6d616b65", "1206": "616c736f", "1207": "4e4c", "1208": "4e4c50", "1209": "746f6e", "1210": "73797374656d732c", "1211": "6c6f676973", "1212": "696d70726f7665", "1213": "746173", "1214": "7461736b", "1215": "6964656173", "1216": "6e6578742d67656e65726174696f6e", "1217": "67697665", "1218": "6162696c697479", "1219": "766973", "1220": "707269", "1221": "6d6f74696f6e", "1222": "706572666f726d616e63652e", "1223": "73656e73", "1224": "64617368626f617264732c", "1225": "756c7469", "1226": "7374727563", "1227": "5245", "1228": "4174", "1229": "537573614c6162732c", "1230": "636f6d70616e792c", "1231": "766172", "1232": "766172696f7573", "1233": "6c656d656e74", "1234": "6461792773", "1235": "62657374", "1236": "656e6572", "1237": "4849", "1238": "484950", "1239": "48495041", "1240": "4849504141", "1241": "636f6d706c69", "1242": "6d61696e74656e", "1243": "636f7374", "1244": "696e74656772617465", "1245": "696e746567726174696f6e", "1246": "696e6573", "1247": "6175746f6d61746564", "1248": "776869", "1249": "636861696e", "1250": "7472616e", "1251": "7472616e7370", "1252": "7472616e7370617265", "1253": "7472616e73706172656e74", "1254": "6f7264", "1255": "6f70656e", "1256": "656e61626c65", "1257": "7472616e736163", "1258": "7472616e73616374696f6e73", "1259": "496e6475737472", "1260": "6f7279", "1261": "61757468", "1262": "697a6174696f6e2c", "1263": "776f726b666c6f77732e", "1264": "7370656369616c697a65", "1265": "6578697374696e67", "1266": "53747261746567", "1267": "6f7267", "1268": "6f7267616e", "1269": "6f7267616e697a", "1270": "6f696e", "1271": "77696465", "1272": "656e7472", "1273": "656e7472616c", "1274": "706f72", "1275": "6f7065726174696f6e732e", "1276": "4d616e", "1277": "556e", "1278": "47726f77", "1279": "476574", "1280": "4163", "1281": "6f6e67", "1282": "75726f", "1283": "696e7465726e", "1284": "64657369676e2c", "1285": "757465", "1286": "627574", "1287": "636f70", "1288": "636f7079", "1289": "6d616e75616c", "1290": "3034", "1291": "776e", "1292": "6d6565", "1293": "6d656574696e67", "1294": "72656374", "1295": "3234", "1296": "74756e", "1297": "6974696573", "1298": "776f726b73", "1299": "636570", "1300": "696e746567726174696f6e73", "1301": "524f", "1302": "524f49", "1303": "63686174626f7473", "1304": "736572", "1305": "73657276696365", "1306": "2d746865", "1307": "2d7468652d", "1308": "416e64726f6964", "1309": "2d666972", "1310": "2d6669727374", "1311": "2d6672", "1312": "696e65732c", "1313": "636f6d6d756e6963", "1314": "74732c", "1315": "726f73732d", "1316": "617365", "1317": "6578706c", "1318": "6578706c6f72696e67", "1319": "6c696d696e", "1320": "616e616c79746963732c", "1321": "4953", "1322": "2d7370656369666963", "1323": "7175616e74756d", "1324": "636f6d707574", "1325": "6174746572", "1326": "6d697365", "1327": "72617465", "1328": "73796e657267", "1329": "636f64696e67", "1330": "70726563", "1331": "70726563697365", "1332": "63616e6365722d", "1333": "6c6174657374", "1334": "6f74686572", "1335": "656c656374726f6465", "1336": "616c676f726974686d73", "1337": "756e6465727374616e64696e67", "1338": "696e74657266616365", "1339": "6163637572616379", "1340": "426566", "1341": "4265666f7265", "1342": "52657461696c2c", "1343": "68656c70696e67", "1344": "4172746966696369616c", "1345": "636f6d7065", "1346": "636f6d62696e65", "1347": "70726f63657373696e672c", "1348": "76616c", "1349": "7565", "1350": "657870657269656e6365732e", "1351": "6963732c", "1352": "636f7265", "1353": "6f7065726174696f6e732c", "1354": "6c792c", "1355": "6c65766572", "1356": "626f7468", "1357": "676170", "1358": "696e6e6f766174", "1359": "696e6e6f7661746f7273", "1360": "6675747572652d", "1361": "6675747572652d7265616479", "1362": "6166", "1363": "67726f75", "1364": "74686579", "1365": "6c656164696e67", "1366": "696e6e6f766174696f6e", "1367": "6f6f676c65", "1368": "4c6574", "1369": "706f776572", "1370": "61646170", "1371": "6164617074", "1372": "617373697374", "1373": "696e636c7564", "1374": "696e636c7564696e67", "1375": "66756c6c2d", "1376": "656e67696e65657273", "1377": "70726163", "1378": "2d6f66", "1379": "6d616b", "1380": "6d616b6573", "1381": "766573", "1382": "776f726b666c6f7773", "1383": "717565", "1384": "736f6c7665", "1385": "69742773", "1386": "696e636c756465", "1387": "706c616e", "1388": "6d6572", "1389": "6e65656473", "1390": "73616c", "1391": "73616c65732c", "1392": "6b656570", "1393": "637573746f6d657273", "1394": "6865616c7468", "1395": "706563", "1396": "70656369616c", "1397": "61646469", "1398": "756c6172", "1399": "41492c", "1400": "646174612e", "1401": "616e7473", "1402": "636c69656e7473", "1403": "6861", "1404": "7265616368", "1405": "696e76", "1406": "6372656174696e67", "1407": "77696c6c", "1408": "63617074757265", "1409": "737562", "1410": "6d696c", "1411": "6d696c6c69", "1412": "6d696c6c696d65", "1413": "6d696c6c696d65746572", "1414": "617468", "1415": "6e657477", "1416": "636f6e6e6563746564", "1417": "6368616e", "1418": "67617465", "1419": "67617465776179", "1420": "656e61626c", "1421": "656e61626c696e67", "1422": "756c74692d", "1423": "66756e", "1424": "66756e63", "1425": "636f6d706c6578", "1426": "5445", "1427": "454e", "1428": "74727573", "1429": "74727573746564", "1430": "6961", "1431": "6f7074696d697a65", "1432": "746f6461792773", "1433": "656e74657270726973652d", "1434": "656e74657270726973652d6772", "1435": "656e74657270726973652d677261", "1436": "656e74657270726973652d6772616465", "1437": "6170706c69636174696f6e732e", "1438": "686f", "1439": "696e6672", "1440": "737472756374757265", "1441": "6d61696e74656e616e6365", "1442": "4175", "1443": "4175746f6d", "1444": "706970", "1445": "706970656c", "1446": "5461", "1447": "5461696c6f726564", "1448": "5472616e73", "1449": "5472616e73666f726d", "1450": "756365", "1451": "636c61696d", "1452": "3025", "1453": "7768696c65", "1454": "6c6f636b636861696e", "1455": "70726f6f66", "1456": "7265636f7264", "1457": "69746965732e", "1458": "697368", "1459": "6973686564", "1460": "636f67", "1461": "636f676e", "1462": "726567", "1463": "726567756c", "1464": "4576657279", "1465": "736372", "1466": "61746368", "1467": "537472617465676963", "1468": "6f7267616e697a6174696f6e73", "1469": "70617274", "1470": "64656c6976657273", "1471": "4a6f696e", "1472": "7468616e", "1473": "6c65637472", "1474": "6c656374726f6e", "1475": "776f726c6477696465", "1476": "6d61726b6574696e67", "1477": "636f6e74656e74", "1478": "546f", "1479": "47726f777468", "1480": "41636365", "1481": "416363656c", "1482": "416363656c6572", "1483": "416363656c6572617465", "1484": "456e746572707269736573", "1485": "4d65", "1486": "4d656574", "1487": "45787065727473", "1488": "4265", "1489": "426568", "1490": "426568696e64", "1491": "7265707265", "1492": "66696564", "1493": "6174696f6e616c", "1494": "65786563", "1495": "4966", "1496": "627574746f6e", "1497": "646f6573", "1498": "776f726b2c", "1499": "636f6e73756c74", "1500": "506572", "1501": "6172652c", "1502": "6f776e", "1503": "692c", "1504": "726565", "1505": "646972656374", "1506": "77697468696e", "1507": "73686170", "1508": "7368617065", "1509": "666173742d", "1510": "706572666f726d616e63652c", "1511": "65766572797468", "1512": "65766572797468696e67", "1513": "746578", "1514": "737570706f72742c", "1515": "696e7465726e616c", "1516": "757365722d6672", "1517": "757365722d667269656e", "1518": "757365722d667269656e64", "1519": "757365722d667269656e646c79", "1520": "646f6375", "1521": "646f63756d656e74", "1522": "696365", "1523": "4d616368", "1524": "706f7274", "1525": "706f7274616c", "1526": "636f6e636570", "1527": "636f6e63657074", "1528": "6261636b656e64", "1529": "686173", "1530": "64617368626f61726473", "1531": "6170702c", "1532": "446563", "1533": "656e7472616c697a6564", "1534": "6275", "1535": "74686973", "1536": "73696e67", "1537": "6e656564732e", "1538": "746f70", "1539": "496f542c", "1540": "656e6372", "1541": "656e637279", "1542": "656e63727970", "1543": "68657265", "1544": "6962696c", "1545": "6962696c697479", "1546": "6e696e67", "1547": "6d6f6e6974", "1548": "6d6f6e69746f72696e67", "1549": "4552502c", "1550": "636f6d707574696e67", "1551": "697473", "1552": "446f", "1553": "427573696e6573733f", "1554": "73686f75", "1555": "73686f756c64", "1556": "57616e74", "1557": "5468696e6b", "1558": "4d6f62696c65", "1559": "63726f73732d", "1560": "4e6174697665", "1561": "74657374696e67", "1562": "5558", "1563": "746f7265", "1564": "6372656174696f6e2c", "1565": "5765277265", "1566": "707573", "1567": "70757368", "1568": "70757368696e67", "1569": "626f756e64", "1570": "626f756e646172", "1571": "626f756e646172696573", "1572": "6f6e3a", "1573": "4e6f", "1574": "4e6f76656c", "1575": "61726368697465637475726573", "1576": "636f6e74726f6c6c", "1577": "636f6e74726f6c6c61626c65", "1578": "66726f6e7469657273", "1579": "73796e7468657369732e", "1580": "636f6c6c61626f726174696f6e2c", "1581": "616363657373", "1582": "6163636573732c", "1583": "68656c702e", "1584": "6966", "1585": "5265766f6c7574696f6e", "1586": "5265766f6c7574696f6e617279", "1587": "707265636973656c79", "1588": "656c696d696e", "1589": "656c696d696e617465", "1590": "526563", "1591": "526563656e74", "1592": "74686572617065", "1593": "7468657261706575", "1594": "746865726170657574696373", "1595": "3738", "1596": "373825", "1597": "6d657461", "1598": "6d6574617374", "1599": "6d657461737461", "1600": "6d657461737461746963", "1601": "74756d6f722d7370656369666963", "1602": "6e656f", "1603": "6e656f616e", "1604": "6e656f616e7469", "1605": "6e656f616e746967656e", "1606": "76616363", "1607": "76616363696e", "1608": "76616363696e65732e", "1609": "4e6577", "1610": "6d6f6e7468", "1611": "6d6f6e746873", "1612": "7765656b732c", "1613": "63727563", "1614": "6372756369616c", "1615": "616767", "1616": "61676772657373", "1617": "61676772657373697665", "1618": "63616e636572732e", "1619": "43524953", "1620": "435249535052", "1621": "4352495350522d6261736564", "1622": "65646974", "1623": "65646974696e67", "1624": "73686f7773", "1625": "70726f6d697365", "1626": "636f72726563", "1627": "636f7272656374696e67", "1628": "63616e6365722d64726976696e67", "1629": "6d7574", "1630": "6d75746174696f6e73", "1631": "7265616c2d74696d652e", "1632": "617070726f", "1633": "617070726f6163686573", "1634": "5265647563", "1635": "52656475636564", "1636": "746f78", "1637": "746f786963", "1638": "746f786963697479", "1639": "636f6d7061726564", "1640": "636865", "1641": "6368656d6f", "1642": "6368656d6f74686572617079", "1643": "576f726b73", "1644": "73796e6572676973", "1645": "73796e6572676973746963616c", "1646": "73796e6572676973746963616c6c79", "1647": "6f6e636f", "1648": "6f6e636f6c6f67", "1649": "6f6e636f6c6f6779", "1650": "696e746572666163696e67", "1651": "4375727265", "1652": "43757272656e74", "1653": "627265616b", "1654": "627265616b7468726f756768", "1655": "627265616b7468726f75676873", "1656": "746563686e6f6c6f67793a", "1657": "3936", "1658": "393625", "1659": "696e74656e74696f6e", "1660": "6465636f64696e67", "1661": "3478", "1662": "7265686162696c", "1663": "7265686162696c6974", "1664": "7265686162696c69746174696f6e", "1665": "7374726f", "1666": "7374726f6b65", "1667": "456172", "1668": "4561726c79", "1669": "7365697a", "1670": "7365697a757265", "1671": "33302d", "1672": "33302d6d696e", "1673": "33302d6d696e757465", "1674": "7761726e", "1675": "7761726e696e67", "1676": "70696f6e", "1677": "70696f6e65", "1678": "70696f6e656572696e67", "1679": "627261696e2d", "1680": "627261696e2d636f6d7075746572", "1681": "31322b", "1682": "756e64657277", "1683": "756e6465727761792e", "1684": "6e6575726f", "1685": "6e6575726f746563686e6f6c6f6779", "1686": "506f7765726564", "1687": "54656c65", "1688": "54656c65636f6d", "1689": "54656c65636f6d2c", "1690": "456e657267", "1691": "456e657267792c", "1692": "46696e", "1693": "46696e616e63652c", "1694": "45647563", "1695": "456475636174696f6e2c", "1696": "4865616c7468636172652c", "1697": "6c6561726e696e672c", "1698": "756e707265", "1699": "756e707265636564", "1700": "756e707265636564656e74", "1701": "756e707265636564656e746564", "1702": "76616c7565", "1703": "616c69676e", "1704": "676f616c732e", "1705": "4c6561726e", "1706": "44697665", "1707": "6d65646963", "1708": "6d65646963696e65", "1709": "646f6374", "1710": "6f72732c", "1711": "636c696e6963732c", "1712": "646174612d64726976656e", "1713": "666f6375736573", "1714": "696e746567726174696e67", "1715": "656e676167656d656e742c", "1716": "74726561746d656e742c", "1717": "646961676e6f73746963732c", "1718": "6c657665726167", "1719": "656e67696e656572696e67", "1720": "6272696467", "1721": "62726964676573", "1722": "636172652e", "1723": "776f726b666c6f77732c", "1724": "70657273", "1725": "706572736f6e", "1726": "706572736f6e616c", "1727": "6a6f75726e6579732c", "1728": "65722c", "1729": "63726166", "1730": "67726f756e64", "1731": "6d524e412d6261736564", "1732": "676976", "1733": "676976696e67", "1734": "7363", "1735": "73617665", "1736": "7665732e", "1737": "69626c65", "1738": "75732e", "1739": "7265766f6c7574696f6e697a", "1740": "7265766f6c7574696f6e697a696e67", "1741": "7472656e64", "1742": "6d524e41", "1743": "746f6765", "1744": "746f676574686572", "1745": "746f64", "1746": "746f6461792e", "1747": "696e746572616374696f6e", "1748": "696e746572616374696f6e2e", "1749": "6561726c79", "1750": "63686174626f74", "1751": "546563686e6f6c6f67", "1752": "546563686e6f6c6f6779", "1753": "76696577", "1754": "70726163746963616c", "1755": "476f6f676c65", "1756": "52656164", "1757": "5265616479", "1758": "6372656174697665", "1759": "66756c6c2d7374", "1760": "66756c6c2d737461636b", "1761": "756e69717565", "1762": "7265616c2d776f726c64", "1763": "71756963", "1764": "717569636b", "1765": "666f6375736564", "1766": "65636f", "1767": "65636f73797374656d732e", "1768": "696368", "1769": "4d4c", "1770": "4e4c5029", "1771": "6465636973696f6e2d", "1772": "6465636973696f6e2d6d616b696e67", "1773": "6465636973696f6e73", "1774": "736d61727465722c", "1775": "7363616c61626c652e", "1776": "747572", "1777": "7475726e", "1778": "6c6f67697374696373", "1779": "726f757465", "1780": "6175746f6d6174696e67", "1781": "7461736b732e", "1782": "43524d73", "1783": "6d616465", "1784": "6d616e6167", "1785": "67726f77696e67", "1786": "756368", "1787": "6f6e652e", "1788": "62696f74656368", "1789": "6865616c746874656368", "1790": "657370656369616c", "1791": "657370656369616c6c79", "1792": "6172656173", "1793": "6c6c696e672c", "1794": "77617264", "1795": "76697375616c", "1796": "736f6674776172652e", "1797": "68617665", "1798": "7065", "1799": "6c652c", "1800": "746f6f6c732c", "1801": "6b6e6f776c6564", "1802": "6b6e6f776c65646765", "1803": "77686574686572", "1804": "627573696e6573732c", "1805": "7468656d", "1806": "636f6d65", "1807": "70726f707269", "1808": "70726f7072696574", "1809": "70726f7072696574617279", "1810": "6361707475726573", "1811": "616e616c797a", "1812": "616e616c797a6573", "1813": "7375622d", "1814": "7375622d6d696c6c696d65746572", "1815": "707265636973696f6e2c", "1816": "70726f766964696e67", "1817": "6174686c65", "1818": "6174686c65746573", "1819": "636f6163686573", "1820": "616374696f6e61626c65", "1821": "656c65", "1822": "656c6576", "1823": "656c6576617465", "1824": "496e746572", "1825": "6e6574776f726b", "1826": "736d6172742c", "1827": "73656e736f7273", "1828": "70726f766964", "1829": "6c6179", "1830": "494e", "1831": "4553", "1832": "4c4c", "1833": "496e646961", "1834": "5553412c", "1835": "646576656c6f70657273", "1836": "66756c", "1837": "496e74656772", "1838": "4d6564", "1839": "4d65646963616c", "1840": "496d70", "1841": "457870657274", "1842": "6775", "1843": "6176", "1844": "7472616e73666f726d6174696f6e2e", "1845": "616464", "1846": "61646472657373", "1847": "6368616c6c", "1848": "6368616c6c656e67", "1849": "6275696c6473", "1850": "656e657267", "1851": "696e636c75646573", "1852": "2d636f6d706c69", "1853": "2d636f6d706c69616e74", "1854": "686f7370", "1855": "686f73706974616c", "1856": "696d70616374", "1857": "696e667261", "1858": "696e667261737472756374757265", "1859": "6361", "1860": "63617573696e67", "1861": "656e746572707269736573", "1862": "73747275", "1863": "6f6c64", "1864": "436c6f", "1865": "436c6f7564", "1866": "7472616e73666f726d6174696f6e", "1867": "6d6963", "1868": "6d6963726f", "1869": "6d6963726f7365727669636573", "1870": "6d6967", "1871": "697a6174696f6e", "1872": "696e75", "1873": "696e756f7573", "1874": "492f", "1875": "696e737572", "1876": "696e737572616e6365", "1877": "636c6169", "1878": "636c61696d73", "1879": "726564756365", "1880": "617564", "1881": "696d70726f76696e67", "1882": "61636375726163792e", "1883": "626c6f636b636861696e", "1884": "74616d70", "1885": "74616d706572", "1886": "74616d7065722d", "1887": "74616d7065722d70726f6f66", "1888": "737570706f727473", "1889": "70726f746f", "1890": "70726f746f636f6c", "1891": "446967", "1892": "6974697a65", "1893": "66616374", "1894": "496e647573747279", "1895": "2d656e61626c65", "1896": "436f6d70726568656e73697665", "1897": "656475636174696f6e", "1898": "737475", "1899": "6361706162696c", "1900": "706c6174666f726d732c", "1901": "617574686f72", "1902": "61626c6973686564", "1903": "657870657274", "1904": "696e7369676874", "1905": "6c696e65", "1906": "73637261746368", "1907": "696e647573747279", "1908": "676f766572", "1909": "676f7665726e", "1910": "676f7665726e6d656e74", "1911": "686970", "1912": "74656c65", "1913": "74656c65636f6d6d756e", "1914": "74656c65636f6d6d756e69636174696f6e73", "1915": "696e697469", "1916": "696e697469617469", "1917": "5261", "1918": "456c656374726f6e", "1919": "456c656374726f6e696373", "1920": "70726f6a656374732e", "1921": "496e647573747269616c", "1922": "656e63", "1923": "6965732c", "1924": "74616b65", "1925": "657863656c6c", "1926": "6c6174696f6e73", "1927": "4f2c", "1928": "6d61726b6574696e672c", "1929": "736f63", "1930": "736f6369616c", "1931": "556e6c6f636b", "1932": "506f776572", "1933": "57697468", "1934": "646961676e6f7374696373", "1935": "656e747265707265", "1936": "656e7472657072656e65", "1937": "656e7472657072656e657572", "1938": "6d61726b6574", "1939": "657874656e73697665", "1940": "636f6d6d756e697479", "1941": "4f766572", "1942": "65617273", "1943": "4d61726b65", "1944": "6578656375", "1945": "6963616c6c79", "1946": "6d62", "1947": "616e7377", "1948": "616e7377657273", "1949": "436f6e6e", "1950": "436f6e6e656374", "1951": "6c6f636174696f6e73", "1952": "3632", "1953": "363235", "1954": "556e696f6e", "1955": "48696c", "1956": "48696c6c", "1957": "416c", "1958": "416c7068", "1959": "416c7068617265", "1960": "416c706861726574", "1961": "416c7068617265747461", "1962": "416c70686172657474612c", "1963": "4741", "1964": "333030", "1965": "3330303034", "1966": "33303030342c", "1967": "444c", "1968": "444c46", "1969": "434f", "1970": "434f5250", "1971": "434f52504f", "1972": "434f52504f52", "1973": "434f52504f5241", "1974": "434f52504f52415445", "1975": "475245", "1976": "475245454e", "1977": "475245454e53", "1978": "536f75", "1979": "536f7574686572", "1980": "536f75746865726e", "1981": "5065726970", "1982": "506572697068", "1983": "5065726970686572", "1984": "5065726970686572616c", "1985": "3734", "1986": "373441", "1987": "3734412c", "1988": "313232303034", "1989": "5374616e64", "1990": "5374616e64617264", "1991": "43686172", "1992": "436861727465", "1993": "436861727465726564", "1994": "546f7765722c", "1995": "4c6576656c", "1996": "352c", "1997": "456d61", "1998": "456d616172", "1999": "537175", "2000": "5371756172652c", "2001": "446f776e", "2002": "446f776e746f", "2003": "446f776e746f776e", "2004": "447562", "2005": "44756261", "2006": "44756261692c", "2007": "5541", "2008": "554145", "2009": "646f6f7273", "2010": "616c776179", "2011": "616c77617973", "2012": "636f6e73756c746174696f6e732e", "2013": "736368", "2014": "7363686564", "2015": "736368656475", "2016": "7363686564756c65", "2017": "646f65736e2774", "2018": "6665656c", "2019": "66726565", "2020": "73656e64", "2021": "70726566", "2022": "707265666572", "2023": "707265666572726564", "2024": "6c696e6b", "2025": "726573706f6e64", "2026": "686f7572", "2027": "686f7572732e", "2028": "496e6e6f766174696f6e73", "2029": "636f6d70657469", "2030": "636f6d7065746974697665", "2031": "62656e", "2032": "62656e6566", "2033": "62656e65666974", "2034": "62656e65666974732c", "2035": "70726f6a656374732c", "2036": "6f70706f72", "2037": "6f70706f7274756e", "2038": "6f70706f7274756e6974696573", "2039": "576562", "2040": "6f6c76696e67", "2041": "7765622c", "2042": "64657369676e73", "2043": "636c65", "2044": "756e6966696564", "2045": "6d656173", "2046": "6d6561737572", "2047": "6d656173757261626c65", "2048": "6d696e64", "2049": "617373697374616e7473", "2050": "746578742c", "2051": "32342f", "2052": "32342f37", "2053": "4275696c74", "2054": "6174652d6f66", "2055": "6174652d6f662d7468652d", "2056": "6174652d6f662d7468652d617274", "2057": "646576696365732e", "2058": "636f6e7375", "2059": "636f6e73756d6572", "2060": "656e7375726573", "2061": "696e7475", "2062": "696e747569", "2063": "696e74756974697665", "2064": "73697465", "2065": "496e74656c6c6967656e74", "2066": "7072696f72", "2067": "7072696f726974697a", "2068": "7265636f6d6d", "2069": "7265636f6d6d656e64", "2070": "7265636f6d6d656e646174696f6e", "2071": "616e616c79746963", "2072": "616e616c79746963732e", "2073": "706970656c696e65732c", "2074": "6d6f64756c", "2075": "415049732c", "2076": "72657175", "2077": "72657175657374", "2078": "72657175657374732c", "2079": "766f", "2080": "766f696365", "2081": "7265636f676e", "2082": "726564756374696f6e", "2083": "6d657472", "2084": "53706f", "2085": "746c", "2086": "456e61626c65", "2087": "536563", "2088": "4852", "2089": "62696c6c", "2090": "726567756c6174", "2091": "726567756c61746f7279", "2092": "72656c69", "2093": "72656c6961626c65", "2094": "4c65742773", "2095": "64697363", "2096": "646973637573", "2097": "64697363757373", "2098": "6c656467", "2099": "6c656467657273", "2100": "7472616374", "2101": "61746573", "2102": "6469737472", "2103": "646973747269", "2104": "6469737472696275", "2105": "63656e7472616c697a6564", "2106": "616e63", "2107": "6c6567", "2108": "73696e676c65", "2109": "636f6e74726f6c", "2110": "4167", "2111": "706879", "2112": "70687973", "2113": "6669726d", "2114": "6669726d77", "2115": "6d756c74692d", "2116": "6d756c74692d74656e", "2117": "707574", "2118": "61757468656e", "2119": "61757468656e746963", "2120": "61757468656e7469636174696f6e2c", "2121": "656e6372797074696f6e2c", "2122": "4744", "2123": "47445052", "2124": "6f7074696d697a6174696f6e2c", "2125": "616c6572", "2126": "7669736962696c697479", "2127": "6465706c6f796d656e742e", "2128": "67617465776179732c", "2129": "657272", "2130": "487562", "2131": "636f6d70616e", "2132": "72656d6f", "2133": "72656d6f7465", "2134": "69656e63652c", "2135": "69736f6c", "2136": "506f73742d", "2137": "6c61756e63682c", "2138": "7570646174", "2139": "66696e65", "2140": "636f6d706c69616e6365", "2141": "6d656368616e", "2142": "5175", "2143": "5175616e74756d", "2144": "7375706572", "2145": "7375706572706f", "2146": "7375706572706f7369", "2147": "7375706572706f736974696f6e", "2148": "737065", "2149": "7370656564", "2150": "696d6167", "2151": "636c617373", "2152": "636c6173736963616c", "2153": "636f6d7075746572732e", "2154": "706172", "2155": "7469636c", "2156": "7469636c6573", "2157": "65787065727473", "2158": "61626c652e", "2159": "546861742773", "2160": "7768657265", "2161": "4974", "2162": "6c616e", "2163": "6272696e6773", "2164": "73757070", "2165": "73797374656d2e", "2166": "7363616c6162696c697479", "2167": "7363616c6162696c6974792c", "2168": "636c6f75642d6261736564", "2169": "6f6e2d", "2170": "72656672", "2171": "72656672616d", "2172": "66756e6374696f6e616c", "2173": "636b", "2174": "4552503f", "2175": "74696f6e2e", "2176": "70726f636573736573", "2177": "666f726365", "2178": "3130", "2179": "746f6f", "2180": "746f6f2e", "2181": "6c6f6e67", "2182": "6c6f6e672d", "2183": "6c6f6e672d746572", "2184": "6c6f6e672d7465726d", "2185": "5375", "2186": "537570706f72", "2187": "6e6f74", "2188": "63726f73732d706c6174666f726d", "2189": "466c", "2190": "466c7574", "2191": "466c7574746572", "2192": "5265616374", "2193": "7765277265", "2194": "616e64726f69", "2195": "616e64726f69642c", "2196": "696f", "2197": "696f73", "2198": "6f7074696d697a6564", "2199": "626174746572", "2200": "626174746572792c", "2201": "77656172", "2202": "7765617261626c", "2203": "6950", "2204": "70657266", "2205": "70657266656374", "2206": "43524d2c", "2207": "6164646974696f6e73", "2208": "6164646974696f6e732c", "2209": "4750", "2210": "6167652c", "2211": "6b6579", "2212": "53746f7265", "2213": "53746f72652c", "2214": "47656e6572", "2215": "47656e65726174697665", "2216": "6e6f76656c", "2217": "6d6f6c6563", "2218": "67656e6572617465", "2219": "7265616c6973", "2220": "7265616c6973746963", "2221": "4d6f64656c", "2222": "4d6f64656c73", "2223": "4e65", "2224": "636f6d6d756e69636174696f6e", "2225": "617272", "2226": "6172726179", "2227": "617272617973", "2228": "6465636f6465", "2229": "7369676e", "2230": "656c656374726f646573", "2231": "4b6e6f77", "2232": "4b6e6f7773", "2233": "446f3a", "2234": "4d61676963", "2235": "50726564696374697665", "2236": "4275696c643a", "2237": "4675", "2238": "467574757265", "2239": "52697365", "2240": "4167656e", "2241": "4167656e746963", "2242": "41493a", "2243": "5768656e", "2244": "4d616368696e6573", "2245": "5374617274", "2246": "4d61", "2247": "4d616b696e67", "2248": "5468656972", "2249": "4f776e", "2250": "4465636973696f6e", "2251": "4465636973696f6e73", "2252": "76732e", "2253": "4f66", "2254": "4f6666", "2255": "4f66662d7468652d", "2256": "4f66662d7468652d53", "2257": "4f66662d7468652d5368656c", "2258": "4f66662d7468652d5368656c66", "2259": "4f66662d7468652d5368656c663a", "2260": "576861742773", "2261": "42657374"}, "merges": [["69", "6e", "696e"], ["72", "65", "7265"], ["61", "6e", "616e"], ["65", "72", "6572"], ["74", "69", "7469"], ["65", "6e", "656e"], ["75", "73", "7573"], ["6f", "6e", "6f6e"], ["65", "73", "6573"], ["6f", "72", "6f72"], ["74", "68", "7468"], ["74", "6f", "746f"], ["6c", "6f", "6c6f"], ["7469", "6f6e", "74696f6e"], ["76", "65", "7665"], ["61", "6c", "616c"], ["616e", "64", "616e64"], ["656e", "74", "656e74"], ["6f", "66", "6f66"], ["696e", "67", "696e67"], ["72", "6f", "726f"], ["66", "6f72", "666f72"], ["69", "63", "6963"], ["61", "7265", "617265"], ["74", "65", "7465"], ["64", "65", "6465"], ["6d", "656e74", "6d656e74"], ["75", "72", "7572"], ["61", "62", "6162"], ["61", "72", "6172"], ["74", "77", "7477"], ["746f", "6d", "746f6d"], ["6f66", "7477", "6f667477"], ["6f667477", "617265", "6f667477617265"], ["74696f6e", "73", "74696f6e73"], ["7665", "6c6f", "76656c6f"], ["76656c6f", "70", "76656c6f70"], ["6c", "65", "6c65"], ["61", "74", "6174"], ["76656c6f70", "6d656e74", "76656c6f706d656e74"], ["7573", "746f6d", "7573746f6d"], ["6f", "6c", "6f6c"], ["63", "68", "6368"], ["77", "69", "7769"], ["69", "73", "6973"], ["65", "64", "6564"], ["7769", "7468", "77697468"], ["6f", "7572", "6f7572"], ["76", "6963", "766963"], ["63", "6f", "636f"], ["6f6c", "75", "6f6c75"], ["4c", "6162", "4c6162"], ["4c6162", "73", "4c616273"], ["73", "6f6c75", "736f6c75"], ["766963", "6573", "7669636573"], ["53", "7573", "537573"], ["537573", "61", "53757361"], ["53757361", "4c616273", "537573614c616273"], ["6e", "6f", "6e6f"], ["736f6c75", "74696f6e73", "736f6c7574696f6e73"], ["6572", "7669636573", "65727669636573"], ["6573", "73", "657373"], ["73", "6f667477617265", "736f667477617265"], ["74", "75", "7475"], ["6d", "70", "6d70"], ["6465", "76656c6f706d656e74", "646576656c6f706d656e74"], ["70", "70", "7070"], ["65", "63", "6563"], ["69", "67", "6967"], ["73", "74", "7374"], ["61", "74696f6e", "6174696f6e"], ["43", "7573746f6d", "437573746f6d"], ["63", "65", "6365"], ["73", "65727669636573", "7365727669636573"], ["7468", "65", "746865"], ["6d", "6f", "6d6f"], ["7573", "696e", "7573696e"], ["7573696e", "657373", "7573696e657373"], ["53", "6f667477617265", "536f667477617265"], ["41", "49", "4149"], ["73", "2c", "732c"], ["61", "63", "6163"], ["6162", "6c65", "61626c65"], ["68", "65", "6865"], ["69", "6c", "696c"], ["44", "65", "4465"], ["63", "7573746f6d", "637573746f6d"], ["6572", "73", "657273"], ["20", "20", "2020"], ["4465", "76656c6f706d656e74", "446576656c6f706d656e74"], ["69", "74", "6974"], ["74", "72", "7472"], ["73", "65", "7365"], ["6e", "64", "6e64"], ["7469", "7665", "74697665"], ["6f", "75", "6f75"], ["74", "6572", "746572"], ["61", "74696f6e73", "6174696f6e73"], ["70", "726f", "70726f"], ["7265", "64", "726564"], ["7465", "6368", "74656368"], ["636f", "6d70", "636f6d70"], ["63", "616c", "63616c"], ["65", "78", "6578"], ["6c", "69", "6c69"], ["61", "7070", "617070"], ["616e", "6365", "616e6365"], ["70", "6572", "706572"], ["61", "7465", "617465"], ["6d", "73", "6d73"], ["79", "6f7572", "796f7572"], ["75", "63", "7563"], ["6c6f", "67", "6c6f67"], ["62", "7573696e657373", "627573696e657373"], ["64", "6573", "646573"], ["77", "65", "7765"], ["69", "7665", "697665"], ["6e6f", "76", "6e6f76"], ["656e", "73", "656e73"], ["6f66", "66", "6f6666"], ["75", "696c", "75696c"], ["61", "73", "6173"], ["6e6f", "6c6f67", "6e6f6c6f67"], ["74656368", "6e6f6c6f67", "746563686e6f6c6f67"], ["61", "6d", "616d"], ["61", "67", "6167"], ["65", "66", "6566"], ["43", "52", "4352"], ["75696c", "64", "75696c64"], ["6172", "7475", "61727475"], ["6563", "74", "656374"], ["61727475", "70", "6172747570"], ["4f", "7572", "4f7572"], ["736f6c7574696f6e73", "2e", "736f6c7574696f6e732e"], ["63616c", "61626c65", "63616c61626c65"], ["746563686e6f6c6f67", "79", "746563686e6f6c6f6779"], ["6b", "696e67", "6b696e67"], ["6172", "74", "617274"], ["6974", "79", "697479"], ["616e", "79", "616e79"], ["4352", "4d", "43524d"], ["73", "79", "7379"], ["726f", "6d", "726f6d"], ["70", "72", "7072"], ["69", "6f6e", "696f6e"], ["7475", "7265", "74757265"], ["6c", "6c", "6c6c"], ["6f", "77", "6f77"], ["6e", "65", "6e65"], ["6566", "66", "656666"], ["6d", "65", "6d65"], ["6f6666", "657273", "6f6666657273"], ["6172747570", "73", "617274757073"], ["616c", "7468", "616c7468"], ["63", "617265", "63617265"], ["666f72", "6d", "666f726d"], ["7468", "6174", "74686174"], ["6973", "65", "697365"], ["50", "726f", "50726f"], ["53", "4d", "534d"], ["45", "6e64", "456e64"], ["74", "61", "7461"], ["6967", "6e", "69676e"], ["726f", "77", "726f77"], ["534d", "45", "534d45"], ["616c7468", "63617265", "616c746863617265"], ["69", "656e", "69656e"], ["62", "72", "6272"], ["7265", "61", "726561"], ["76", "69", "7669"], ["6174696f6e", "2c", "6174696f6e2c"], ["73", "7465", "737465"], ["66", "75", "6675"], ["70", "6c", "706c"], ["61", "74697665", "6174697665"], ["7379", "737465", "7379737465"], ["67", "726f77", "67726f77"], ["6963", "616c", "6963616c"], ["74", "696e67", "74696e67"], ["69", "616c", "69616c"], ["49", "6e", "496e"], ["6973", "696f6e", "6973696f6e"], ["70", "6c6f", "706c6f"], ["646573", "69676e", "64657369676e"], ["64", "72", "6472"], ["67", "72", "6772"], ["6d6f", "7265", "6d6f7265"], ["696e", "6e6f76", "696e6e6f76"], ["7469", "63", "746963"], ["61", "75", "6175"], ["69", "7a", "697a"], ["57", "65", "5765"], ["57", "68", "5768"], ["6e", "6572", "6e6572"], ["76", "6572", "766572"], ["6865", "616c746863617265", "6865616c746863617265"], ["7468", "6572", "74686572"], ["6f75", "74", "6f7574"], ["6967", "68", "696768"], ["71", "75", "7175"], ["42", "7573696e657373", "427573696e657373"], ["63", "616e", "63616e"], ["79", "2e", "792e"], ["646576656c6f706d656e74", "2c", "646576656c6f706d656e742c"], ["73", "2e", "732e"], ["61", "64", "6164"], ["7072", "697365", "7072697365"], ["69", "6c6f", "696c6f"], ["73", "70", "7370"], ["43", "6f", "436f"], ["73", "73", "7373"], ["616e6365", "2c", "616e63652c"], ["6174", "696e67", "6174696e67"], ["706c", "6174", "706c6174"], ["7573", "74", "757374"], ["66", "65", "6665"], ["696c6f", "726564", "696c6f726564"], ["6963", "6174696f6e73", "69636174696f6e73"], ["59", "6f7572", "596f7572"], ["64", "2c", "642c"], ["696e", "7465", "696e7465"], ["6d", "61", "6d61"], ["73", "75", "7375"], ["6578", "74", "657874"], ["41", "7070", "417070"], ["6b", "65", "6b65"], ["67726f77", "7468", "67726f777468"], ["70726f", "7669", "70726f7669"], ["66", "696e", "66696e"], ["706c6f", "79", "706c6f79"], ["6a", "656374", "6a656374"], ["436f", "6d70", "436f6d70"], ["67", "65", "6765"], ["69656e", "63", "69656e63"], ["6675", "74757265", "667574757265"], ["63", "6c", "636c"], ["6d656e74", "2c", "6d656e742c"], ["62", "69", "6269"], ["77", "6f72", "776f72"], ["69", "6465", "696465"], ["7461", "696c6f726564", "7461696c6f726564"], ["2020", "20", "202020"], ["6c", "69636174696f6e73", "6c69636174696f6e73"], ["6465", "706c6f79", "6465706c6f79"], ["53", "74", "5374"], ["45", "6e", "456e"], ["6c", "79", "6c79"], ["617274", "6e6572", "6172746e6572"], ["6f", "6f", "6f6f"], ["73", "63616c61626c65", "7363616c61626c65"], ["52", "50", "5250"], ["5768", "79", "576879"], ["75", "74", "7574"], ["7379737465", "6d73", "73797374656d73"], ["45", "78", "4578"], ["6172", "6368", "61726368"], ["46", "726f6d", "46726f6d"], ["696e6e6f76", "6174697665", "696e6e6f766174697665"], ["7265", "68", "726568"], ["42", "75696c64", "4275696c64"], ["7374", "2d", "73742d"], ["69", "6573", "696573"], ["63", "6f6e", "636f6e"], ["74", "73", "7473"], ["7365727669636573", "2c", "73657276696365732c"], ["66696e", "616e63652c", "66696e616e63652c"], ["7572", "696e67", "7572696e67"], ["68", "696768", "68696768"], ["656e73", "697665", "656e73697665"], ["6564", "7563", "65647563"], ["45", "5250", "455250"], ["436f6d70", "616e79", "436f6d70616e79"], ["54", "65", "5465"], ["64", "7563", "647563"], ["76", "6973696f6e", "766973696f6e"], ["62", "75696c64", "6275696c64"], ["64657369676e", "6564", "64657369676e6564"], ["6f77", "6572", "6f776572"], ["61", "70", "6170"], ["62", "726561", "62726561"], ["79", "6f75", "796f75"], ["6272", "696e67", "6272696e67"], ["456e", "746572", "456e746572"], ["43", "68", "4368"], ["726f", "7373", "726f7373"], ["696e", "64", "696e64"], ["696e", "65", "696e65"], ["6472", "697665", "6472697665"], ["6865616c746863617265", "2c", "6865616c7468636172652c"], ["6269", "6c65", "62696c65"], ["77697468", "6f7574", "776974686f7574"], ["67", "656e", "67656e"], ["2d", "746f", "2d746f"], ["2d746f", "2d", "2d746f2d"], ["7469", "6d65", "74696d65"], ["656e73", "7572696e67", "656e737572696e67"], ["726568", "656e73697665", "726568656e73697665"], ["53", "65727669636573", "5365727669636573"], ["6865", "6c", "68656c"], ["6167", "65", "616765"], ["75", "7265", "757265"], ["696e", "746572", "696e746572"], ["5465", "6368", "54656368"], ["616c", "697479", "616c697479"], ["7374", "617274757073", "7374617274757073"], ["656666", "6963", "6566666963"], ["6566666963", "69656e63", "656666696369656e63"], ["68696768", "2d", "686967682d"], ["496e", "6e6f76", "496e6e6f76"], ["4368", "6f6f", "43686f6f"], ["43686f6f", "7365", "43686f6f7365"], ["6b", "2e", "6b2e"], ["6465706c6f79", "6d656e742c", "6465706c6f796d656e742c"], ["726f", "62", "726f62"], ["726f62", "757374", "726f62757374"], ["6c6c", "6967", "6c6c6967"], ["6172", "6e", "61726e"], ["70", "7265", "707265"], ["666f72", "6d73", "666f726d73"], ["63616e", "63", "63616e63"], ["62", "6f", "626f"], ["62726561", "6b696e67", "627265616b696e67"], ["656666", "6563", "6566666563"], ["6566666563", "74697665", "656666656374697665"], ["4e", "657874", "4e657874"], ["62", "616e", "62616e"], ["656666696369656e63", "792e", "656666696369656e63792e"], ["636f6d70", "726568656e73697665", "636f6d70726568656e73697665"], ["7465", "616d", "7465616d"], ["5374", "617274757073", "5374617274757073"], ["456e746572", "7072697365", "456e7465727072697365"], ["427573696e657373", "6573", "427573696e6573736573"], ["53", "63616c61626c65", "5363616c61626c65"], ["66", "666f72", "66666f72"], ["66666f72", "64", "66666f7264"], ["7175", "616c697479", "7175616c697479"], ["456e64", "2d746f2d", "456e642d746f2d"], ["647563", "74", "64756374"], ["6c69", "6665", "6c696665"], ["50", "6172746e6572", "506172746e6572"], ["68656c", "70", "68656c70"], ["616e", "73", "616e73"], ["6578", "706572", "6578706572"], ["64", "6174", "646174"], ["706c6174", "666f726d73", "706c6174666f726d73"], ["6175", "746f6d", "6175746f6d"], ["6d", "616e", "6d616e"], ["6d6f", "62696c65", "6d6f62696c65"], ["736f6c7574696f6e732e", "2d", "736f6c7574696f6e732e2d"], ["417070", "6c69636174696f6e73", "4170706c69636174696f6e73"], ["534d45", "73", "534d4573"], ["50726f", "6a656374", "50726f6a656374"], ["50726f6a656374", "3f", "50726f6a6563743f"], ["41", "66666f7264", "4166666f7264"], ["4166666f7264", "61626c65", "4166666f726461626c65"], ["636f", "73742d", "636f73742d"], ["636f73742d", "656666656374697665", "636f73742d656666656374697665"], ["534d45", "732c", "534d45732c"], ["686967682d", "7175616c697479", "686967682d7175616c697479"], ["62616e", "6b2e", "62616e6b2e"], ["456e642d746f2d", "456e64", "456e642d746f2d456e64"], ["50726f", "64756374", "50726f64756374"], ["696465", "6174696f6e", "6964656174696f6e"], ["70726f7669", "646573", "70726f7669646573"], ["65647563", "6174696f6e2c", "656475636174696f6e2c"], ["6d6f7265", "2c", "6d6f72652c"], ["496e6e6f76", "6174696e67", "496e6e6f766174696e67"], ["6163", "726f7373", "6163726f7373"], ["7573", "7472", "75737472"], ["63", "657373", "63657373"], ["52", "4e", "524e"], ["524e", "41", "524e41"], ["776f72", "6b", "776f726b"], ["7070", "6f72", "70706f72"], ["66", "726f6d", "66726f6d"], ["6172", "79", "617279"], ["61", "79", "6179"], ["646174", "61", "64617461"], ["2d", "62", "2d62"], ["6173", "6564", "61736564"], ["63616e63", "6572", "63616e636572"], ["6573", "2c", "65732c"], ["75", "6c", "756c"], ["636f6d70", "616e79", "636f6d70616e79"], ["636f", "6d", "636f6d"], ["6f", "706572", "6f706572"], ["75", "6e", "756e"], ["70", "6f", "706f"], ["2d62", "61736564", "2d6261736564"], ["6865", "74686572", "686574686572"], ["49", "6f", "496f"], ["496f", "54", "496f54"], ["31", "32", "3132"], ["70726f", "63657373", "70726f63657373"], ["6573", "2e", "65732e"], ["69", "76", "6976"], ["616e", "616c", "616e616c"], ["616e616c", "79", "616e616c79"], ["7265", "616c", "7265616c"], ["73", "6d", "736d"], ["66", "61", "6661"], ["27", "73", "2773"], ["7465", "63", "746563"], ["61", "696e", "61696e"], ["52", "642c", "52642c"], ["696e64", "75737472", "696e6475737472"], ["726f", "75", "726f75"], ["696e7465", "6c6c6967", "696e74656c6c6967"], ["7472", "616e73", "7472616e73"], ["6c65", "61726e", "6c6561726e"], ["637573746f6d", "6572", "637573746f6d6572"], ["7265", "7365", "72657365"], ["72657365", "61726368", "7265736561726368"], ["7375", "70706f72", "737570706f72"], ["57", "686574686572", "57686574686572"], ["6172", "64", "617264"], ["67656e", "6572", "67656e6572"], ["706572", "666f726d", "706572666f726d"], ["656374", "6f72", "6563746f72"], ["6772", "616d", "6772616d"], ["63", "7265", "637265"], ["6d", "6564", "6d6564"], ["6f", "63", "6f63"], ["6f706572", "6174696f6e73", "6f7065726174696f6e73"], ["66", "72", "6672"], ["74", "7265", "747265"], ["62", "65", "6265"], ["69", "7469", "697469"], ["53", "6563746f72", "536563746f72"], ["47", "7572", "477572"], ["477572", "75", "47757275"], ["47757275", "6772616d", "477572756772616d"], ["477572756772616d", "2c", "477572756772616d2c"], ["48", "617279", "48617279"], ["48617279", "616e", "48617279616e"], ["48617279616e", "61", "48617279616e61"], ["3132", "32", "313232"], ["313232", "30", "31323230"], ["54", "6f776572", "546f776572"], ["4d", "6167", "4d6167"], ["6465", "6c69", "64656c69"], ["636c", "696e", "636c696e"], ["696e7465", "6772", "696e74656772"], ["656e", "67", "656e67"], ["6e65", "6564", "6e656564"], ["746963", "73", "74696373"], ["6d656e74", "73", "6d656e7473"], ["27", "7265", "277265"], ["66", "6163", "666163"], ["73", "68", "7368"], ["6f72", "2c", "6f722c"], ["52", "65", "5265"], ["66", "6963", "666963"], ["6472", "6976", "64726976"], ["747265", "6174", "7472656174"], ["737570706f72", "74", "737570706f7274"], ["65", "74", "6574"], ["6465", "6c", "64656c"], ["656e74", "6572", "656e746572"], ["7265616c", "2d", "7265616c2d"], ["6f", "70", "6f70"], ["63", "6f6c", "636f6c"], ["6c65", "63", "6c6563"], ["6573", "74", "657374"], ["617465", "64", "61746564"], ["7370", "6563", "73706563"], ["4d6167", "6e", "4d61676e"], ["4d61676e", "75", "4d61676e75"], ["4d61676e75", "6d", "4d61676e756d"], ["31", "2c", "312c"], ["38", "7468", "387468"], ["46", "6c6f", "466c6f"], ["466c6f", "6f722c", "466c6f6f722c"], ["47", "6f6c", "476f6c"], ["476f6c", "66", "476f6c66"], ["43", "6f7572", "436f7572"], ["436f7572", "7365", "436f75727365"], ["4578", "74", "457874"], ["35", "38", "3538"], ["3538", "2c", "35382c"], ["31323230", "31", "3132323031"], ["3132323031", "31", "313232303131"], ["7765", "726564", "7765726564"], ["6f6666", "6572", "6f66666572"], ["6564", "6765", "65646765"], ["696e6475737472", "696573", "696e6475737472696573"], ["696e67", "2c", "696e672c"], ["75", "6e64", "756e64"], ["756e64", "6572", "756e646572"], ["63", "6564", "636564"], ["4149", "2d", "41492d"], ["6d6564", "6963616c", "6d65646963616c"], ["697a", "65", "697a65"], ["63", "72", "6372"], ["6c", "6162", "6c6162"], ["766572", "79", "76657279"], ["55", "53", "5553"], ["6974", "616c", "6974616c"], ["7573", "696e67", "7573696e67"], ["636c696e", "6963616c", "636c696e6963616c"], ["706572666f726d", "616e6365", "706572666f726d616e6365"], ["73", "6563", "736563"], ["61", "7469", "617469"], ["726f", "69", "726f69"], ["63", "7574", "637574"], ["637574", "74696e67", "63757474696e67"], ["627573696e657373", "6573", "627573696e6573736573"], ["696e74656c6c6967", "656e74", "696e74656c6c6967656e74"], ["67", "6f", "676f"], ["64", "69", "6469"], ["6164", "76", "616476"], ["64", "6967", "646967"], ["736d", "617274", "736d617274"], ["6c", "64", "6c64"], ["7379737465", "6d", "73797374656d"], ["54", "68", "5468"], ["656e", "64", "656e64"], ["7265616c2d", "74696d65", "7265616c2d74696d65"], ["7374", "72", "737472"], ["41", "6e64", "416e64"], ["66", "69", "6669"], ["4f", "53", "4f53"], ["696e746572", "666163", "696e746572666163"], ["7472", "69616c", "747269616c"], ["747269616c", "73", "747269616c73"], ["73", "63616c", "7363616c"], ["7468", "726f75", "7468726f75"], ["7468726f75", "67", "7468726f7567"], ["7468726f7567", "68", "7468726f756768"], ["656e", "6365", "656e6365"], ["7472616e73", "666f726d", "7472616e73666f726d"], ["7572", "616c", "7572616c"], ["7374", "616e64", "7374616e64"], ["64656c69", "766572", "64656c69766572"], ["706f", "7765726564", "706f7765726564"], ["696e", "746f", "696e746f"], ["746f", "6f6c", "746f6f6c"], ["616d", "6c", "616d6c"], ["616e", "636564", "616e636564"], ["524e41", "2d6261736564", "524e412d6261736564"], ["726564", "6963", "7265646963"], ["6c6f", "77", "6c6f77"], ["636f6e", "74", "636f6e74"], ["63", "6973696f6e", "636973696f6e"], ["6d6f", "64656c", "6d6f64656c"], ["6163", "63", "616363"], ["5553", "41", "555341"], ["656e746572", "7072697365", "656e7465727072697365"], ["6163", "6b", "61636b"], ["7765", "62", "776562"], ["617070", "73", "61707073"], ["626f", "617264", "626f617264"], ["7465", "64", "746564"], ["69", "6d", "696d"], ["6272", "61696e", "627261696e"], ["74", "656e", "74656e"], ["61726368", "69", "6172636869"], ["6172636869", "746563", "6172636869746563"], ["706c6174", "666f726d", "706c6174666f726d"], ["6c6162", "6f72", "6c61626f72"], ["636f6d", "6d", "636f6d6d"], ["416e64", "726f69", "416e64726f69"], ["69", "4f53", "694f53"], ["7573", "6572", "75736572"], ["7475", "6d", "74756d"], ["62", "79", "6279"], ["63757474696e67", "2d", "63757474696e672d"], ["63757474696e672d", "65646765", "63757474696e672d65646765"], ["636f6d70", "75", "636f6d7075"], ["756e646572", "7374616e64", "756e6465727374616e64"], ["7265646963", "74697665", "726564696374697665"], ["27", "74", "2774"], ["75", "64", "7564"], ["6368", "6174", "63686174"], ["6f", "7573", "6f7573"], ["696e", "73", "696e73"], ["646967", "6974616c", "6469676974616c"], ["69", "6d70", "696d70"], ["6173", "68", "617368"], ["6c6f", "6f", "6c6f6f"], ["6c6f6f", "6b696e67", "6c6f6f6b696e67"], ["6162", "696c", "6162696c"], ["75", "616c", "75616c"], ["61", "6368", "616368"], ["796f75", "277265", "796f75277265"], ["70", "617469", "70617469"], ["70617469", "656e74", "70617469656e74"], ["6d6f", "64", "6d6f64"], ["7265", "63", "726563"], ["6d", "696e", "6d696e"], ["636f6c", "6c61626f72", "636f6c6c61626f72"], ["766963", "65", "76696365"], ["74686572", "6170", "746865726170"], ["6c69", "6b65", "6c696b65"], ["637265", "617465", "637265617465"], ["41492d", "706f7765726564", "41492d706f7765726564"], ["6f63", "7573", "6f637573"], ["6f72", "73", "6f7273"], ["776f726b", "66", "776f726b66"], ["776f726b66", "6c6f77", "776f726b666c6f77"], ["62", "6c65", "626c65"], ["6162", "6f7574", "61626f7574"], ["6661", "7374", "66617374"], ["65", "76657279", "6576657279"], ["6f6e", "65", "6f6e65"], ["64", "617368", "64617368"], ["64617368", "626f617264", "64617368626f617264"], ["67656e6572", "6174696f6e", "67656e65726174696f6e"], ["6e6f", "77", "6e6f77"], ["75", "70", "7570"], ["657273", "2e", "6572732e"], ["7469", "6d", "74696d"], ["616c", "6c", "616c6c"], ["616e", "74", "616e74"], ["6172636869746563", "74757265", "617263686974656374757265"], ["69", "70", "6970"], ["69656e", "6365", "69656e6365"], ["50", "49", "5049"], ["697a", "6564", "697a6564"], ["617465", "67", "61746567"], ["59", "6f75", "596f75"], ["6174696f6e73", "2e", "6174696f6e732e"], ["7265", "7370", "72657370"], ["72657370", "6f6e", "726573706f6e"], ["313232303131", "2e", "3132323031312e"], ["736f6c7574696f6e73", "2c", "736f6c7574696f6e732c"], ["79", "2c", "792c"], ["496e", "7465", "496e7465"], ["6163", "74", "616374"], ["706c6f", "7265", "706c6f7265"], ["736f6c75", "74696f6e", "736f6c7574696f6e"], ["676f", "616c", "676f616c"], ["656e", "68", "656e68"], ["64726976", "656e", "64726976656e"], ["66", "6f637573", "666f637573"], ["70", "726564696374697665", "70726564696374697665"], ["746963", "732c", "746963732c"], ["656e67", "696e65", "656e67696e65"], ["636f", "6465", "636f6465"], ["6175746f6d", "617465", "6175746f6d617465"], ["77", "68", "7768"], ["6174696f6e", "2e", "6174696f6e2e"], ["66617374", "6572", "666173746572"], ["616e616c79", "74696373", "616e616c7974696373"], ["616363", "7572", "6163637572"], ["696e", "636c", "696e636c"], ["63686174", "626f", "63686174626f"], ["696e73", "696768", "696e73696768"], ["7469", "63616c", "746963616c"], ["776f72", "6c64", "776f726c64"], ["69", "7468", "697468"], ["63", "6c6f", "636c6f"], ["77", "6179", "776179"], ["6f70", "74696d", "6f7074696d"], ["617070", "6c69636174696f6e73", "6170706c69636174696f6e73"], ["736563", "757265", "736563757265"], ["726564", "7563", "7265647563"], ["41", "5049", "415049"], ["616765", "6d656e74", "6167656d656e74"], ["636f6d6d", "756e", "636f6d6d756e"], ["70726f", "6a656374", "70726f6a656374"], ["6365", "6c6c", "63656c6c"], ["64", "6973", "646973"], ["64", "6f", "646f"], ["616476", "616e6365", "616476616e6365"], ["6f72", "696e67", "6f72696e67"], ["49", "54", "4954"], ["7469", "666963", "7469666963"], ["7469666963", "69616c", "746966696369616c"], ["68", "6f77", "686f77"], ["616e", "67", "616e67"], ["636f6d7075", "746572", "636f6d7075746572"], ["696e6475737472696573", "2e", "696e64757374726965732e"], ["4578", "706c6f7265", "4578706c6f7265"], ["656e68", "616e6365", "656e68616e6365"], ["7465", "61", "746561"], ["746561", "6d73", "7465616d73"], ["41", "64", "4164"], ["746563686e6f6c6f67", "696573", "746563686e6f6c6f67696573"], ["69", "64", "6964"], ["6265", "7477", "62657477"], ["62657477", "65", "6265747765"], ["6265747765", "656e", "6265747765656e"], ["726561", "64", "72656164"], ["72656164", "79", "7265616479"], ["6c65", "6164", "6c656164"], ["76", "6f6c75", "766f6c75"], ["766f6c75", "74696f6e", "766f6c7574696f6e"], ["6a", "757374", "6a757374"], ["75", "6d616e", "756d616e"], ["6173", "73", "617373"], ["6163637572", "6163", "61636375726163"], ["6175746f6d", "6174696f6e", "6175746f6d6174696f6e"], ["53", "555341", "53555341"], ["63", "726561", "63726561"], ["696d70", "726f", "696d70726f"], ["7469", "76", "746976"], ["746976", "697479", "746976697479"], ["6d61", "6b696e67", "6d616b696e67"], ["6765", "74", "676574"], ["7472656174", "6d656e7473", "74726561746d656e7473"], ["63", "6c69", "636c69"], ["636c69", "656e74", "636c69656e74"], ["6465", "746563", "6465746563"], ["6465746563", "74696f6e", "646574656374696f6e"], ["6d6f", "7665", "6d6f7665"], ["54", "6865", "546865"], ["6f72", "6b", "6f726b"], ["6465", "7669636573", "64657669636573"], ["6c6563", "74", "6c656374"], ["6162", "6c", "61626c"], ["6465", "76656c6f70", "646576656c6f70"], ["696e", "74656e", "696e74656e"], ["65", "6c", "656c"], ["6578706572", "69656e6365", "657870657269656e6365"], ["6c6f", "63", "6c6f63"], ["6e", "74", "6e74"], ["7475", "616c", "7475616c"], ["75696c", "74", "75696c74"], ["69", "666963", "69666963"], ["6172", "6b65", "61726b65"], ["70", "68", "7068"], ["7665", "6c", "76656c"], ["416e64726f69", "642c", "416e64726f69642c"], ["696e746572666163", "6573", "696e7465726661636573"], ["53", "61", "5361"], ["5361", "61", "536161"], ["536161", "53", "53616153"], ["6c", "6175", "6c6175"], ["6e", "6368", "6e6368"], ["6f66666572", "696e67", "6f66666572696e67"], ["6e6572", "67", "6e657267"], ["48", "65", "4865"], ["4865", "616c746863617265", "4865616c746863617265"], ["496e7465", "6c6c6967", "496e74656c6c6967"], ["7472616e73666f726d", "696e67", "7472616e73666f726d696e67"], ["7374", "7265", "73747265"], ["6f", "7265", "6f7265"], ["6578706572", "7469", "65787065727469"], ["65787065727469", "7365", "657870657274697365"], ["7374", "6172747570", "73746172747570"], ["70", "6172746e6572", "706172746e6572"], ["6465", "636973696f6e", "6465636973696f6e"], ["68", "756d616e", "68756d616e"], ["6675", "6c6c", "66756c6c"], ["706c6174666f726d73", "2e", "706c6174666f726d732e"], ["746f6f6c", "73", "746f6f6c73"], ["616c", "73", "616c73"], ["6c6561726e", "696e67", "6c6561726e696e67"], ["70726f63657373", "696e67", "70726f63657373696e67"], ["7472", "6163", "74726163"], ["74726163", "6b696e67", "747261636b696e67"], ["6e65", "77", "6e6577"], ["41", "73", "4173"], ["6e", "657874", "6e657874"], ["63", "6170", "636170"], ["64", "696e67", "64696e67"], ["74", "6573", "746573"], ["636f6e", "6e", "636f6e6e"], ["6e65", "7572616c", "6e657572616c"], ["49", "6e64", "496e64"], ["4578", "706572", "4578706572"], ["7265", "7373", "72657373"], ["64", "6179", "646179"], ["736563757265", "2c", "7365637572652c"], ["7572", "697479", "7572697479"], ["6572", "6e", "65726e"], ["7072", "6973", "70726973"], ["74656368", "6e", "746563686e"], ["7365", "616d6c", "7365616d6c"], ["7365616d6c", "657373", "7365616d6c657373"], ["43", "6f6e", "436f6e"], ["75", "62", "7562"], ["54", "72", "5472"], ["76", "696e67", "76696e67"], ["7669", "72", "766972"], ["766972", "7475616c", "7669727475616c"], ["73706563", "69616c", "7370656369616c"], ["76", "657273", "76657273"], ["537573614c616273", "27", "537573614c61627327"], ["5768", "6174", "57686174"], ["696e", "6b", "696e6b"], ["6465", "64", "646564"], ["694f53", "2c", "694f532c"], ["7379", "6e", "73796e"], ["6669", "72", "666972"], ["62", "61636b", "6261636b"], ["6465", "76696365", "646576696365"], ["6d", "6f6e", "6d6f6e"], ["6c6175", "6e6368", "6c61756e6368"], ["73706563", "69666963", "7370656369666963"], ["616e", "74756d", "616e74756d"], ["4d", "6f", "4d6f"], ["74", "6172", "746172"], ["67656e6572", "6174697665", "67656e65726174697665"], ["7368", "6f77", "73686f77"], ["70617469656e74", "73", "70617469656e7473"], ["746865726170", "79", "74686572617079"], ["636f6c6c61626f72", "6174696f6e732e", "636f6c6c61626f726174696f6e732e"], ["65", "6c656374", "656c656374"], ["656c656374", "726f", "656c656374726f"], ["636f6d", "62", "636f6d62"], ["616e67", "75", "616e6775"], ["616e6775", "616765", "616e6775616765"], ["4c", "65", "4c65"], ["696e74656c6c6967", "656e6365", "696e74656c6c6967656e6365"], ["6578706572", "69656e63", "657870657269656e63"], ["65", "6d70", "656d70"], ["64", "6f63", "646f63"], ["73747265", "616d6c", "73747265616d6c"], ["73747265616d6c", "696e65", "73747265616d6c696e65"], ["74696f6e", "616c", "74696f6e616c"], ["6672", "6f6e", "66726f6e"], ["6469", "6167", "64696167"], ["64696167", "6e6f", "646961676e6f"], ["646961676e6f", "73", "646961676e6f73"], ["6572", "696e67", "6572696e67"], ["6269", "6f", "62696f"], ["6275696c64", "696e67", "6275696c64696e67"], ["46", "6f72", "466f72"], ["7472656174", "6d656e74", "74726561746d656e74"], ["6174", "757265", "6174757265"], ["61", "792e", "61792e"], ["736d", "6172", "736d6172"], ["736d6172", "746572", "736d6172746572"], ["6d6f64656c", "73", "6d6f64656c73"], ["65", "6172", "656172"], ["707265", "636973696f6e", "707265636973696f6e"], ["69", "6f7573", "696f7573"], ["696e73696768", "7473", "696e736967687473"], ["65", "77", "6577"], ["7573", "65", "757365"], ["63726561", "746976697479", "63726561746976697479"], ["70726f", "626c65", "70726f626c65"], ["7375", "6c", "73756c"], ["64", "6f6e", "646f6e"], ["646f6e", "2774", "646f6e2774"], ["73797374656d73", "2e", "73797374656d732e"], ["696e636c", "75", "696e636c75"], ["616c", "67", "616c67"], ["616c67", "6f72", "616c676f72"], ["616c676f72", "697468", "616c676f72697468"], ["676f616c", "732c", "676f616c732c"], ["65", "70", "6570"], ["6e657874", "2d", "6e6578742d"], ["6b", "6e6f77", "6b6e6f77"], ["6c65", "64", "6c6564"], ["6d6f7665", "6d656e74", "6d6f76656d656e74"], ["616368", "6573", "6163686573"], ["636f6e6e", "6563", "636f6e6e6563"], ["70726f7669", "6465", "70726f76696465"], ["636c6f", "7564", "636c6f7564"], ["6f726b", "73", "6f726b73"], ["6973", "74696e67", "697374696e67"], ["736563", "7572697479", "7365637572697479"], ["6d6f64", "65726e", "6d6f6465726e"], ["70726973", "6573", "707269736573"], ["746563686e", "6963616c", "746563686e6963616c"], ["6465706c6f79", "6d656e74", "6465706c6f796d656e74"], ["636c", "61", "636c61"], ["7265647563", "6573", "72656475636573"], ["6c6f63", "6b", "6c6f636b"], ["697469", "7a", "6974697a"], ["6d616e", "6167656d656e74", "6d616e6167656d656e74"], ["62", "75696c74", "6275696c74"], ["53", "7472", "537472"], ["737472", "61746567", "73747261746567"], ["6963", "73", "696373"], ["63", "6f72", "636f72"], ["6d", "61726b65", "6d61726b65"], ["5468", "6174", "54686174"], ["48", "6f77", "486f77"], ["65", "6d61", "656d61"], ["656d61", "696c", "656d61696c"], ["33", "30", "3330"], ["646564", "6963", "6465646963"], ["6465646963", "61746564", "646564696361746564"], ["64726976", "696e67", "64726976696e67"], ["616476616e6365", "6d656e7473", "616476616e63656d656e7473"], ["74", "2c", "742c"], ["656e73", "757265", "656e73757265"], ["73", "69", "7369"], ["74696f6e", "2c", "74696f6e2c"], ["726573706f6e", "7365", "726573706f6e7365"], ["7765", "65", "776565"], ["776565", "6b", "7765656b"], ["6c", "6174", "6c6174"], ["617265", "64", "61726564"], ["62", "696c", "62696c"], ["636f6e74", "726f", "636f6e74726f"], ["50", "52", "5052"], ["69", "72", "6972"], ["6661", "6365", "66616365"], ["746172", "676574", "746172676574"], ["73796e", "7468", "73796e7468"], ["73796e7468", "6573", "73796e74686573"], ["63656c6c", "73", "63656c6c73"], ["74756d", "6f72", "74756d6f72"], ["4164", "76", "416476"], ["416476", "616e636564", "416476616e636564"], ["50", "6f", "506f"], ["67", "6c6f", "676c6f"], ["676c6f", "62", "676c6f62"], ["676c6f62", "616c", "676c6f62616c"], ["7461", "696c", "7461696c"], ["7461696c", "2c", "7461696c2c"], ["7363616c", "65", "7363616c65"], ["746563686e6f6c6f6779", "2e", "746563686e6f6c6f67792e"], ["41", "72", "4172"], ["496e74656c6c6967", "656e6365", "496e74656c6c6967656e6365"], ["6d61", "6368", "6d616368"], ["6d616368", "696e65", "6d616368696e65"], ["6e", "6174", "6e6174"], ["6e6174", "7572616c", "6e61747572616c"], ["6c", "616e6775616765", "6c616e6775616765"], ["64656c69766572", "696e67", "64656c69766572696e67"], ["656d70", "6f776572", "656d706f776572"], ["696e74656c6c6967656e74", "2c", "696e74656c6c6967656e742c"], ["2d", "64726976656e", "2d64726976656e"], ["616765", "6d656e742c", "6167656d656e742c"], ["67726f777468", "2e", "67726f7774682e"], ["616476", "616e636564", "616476616e636564"], ["6973", "2e", "69732e"], ["746563686e6f6c6f67696573", "2c", "746563686e6f6c6f676965732c"], ["6272", "6964", "62726964"], ["6a", "6f7572", "6a6f7572"], ["6a6f7572", "6e65", "6a6f75726e65"], ["6a6f75726e65", "79", "6a6f75726e6579"], ["66726f6e", "7469", "66726f6e7469"], ["73", "61", "7361"], ["7363616c", "696e67", "7363616c696e67"], ["7265", "766f6c7574696f6e", "7265766f6c7574696f6e"], ["67", "6c65", "676c65"], ["6172", "746966696369616c", "6172746966696369616c"], ["6e", "2774", "6e2774"], ["6665", "6174757265", "66656174757265"], ["6f75", "6e64", "6f756e64"], ["41492d", "64726976656e", "41492d64726976656e"], ["6163", "74696f6e", "616374696f6e"], ["6973", "74", "697374"], ["43", "7572", "437572"], ["616d", "65", "616d65"], ["756e", "69", "756e69"], ["73", "6f6c", "736f6c"], ["70726f626c65", "6d73", "70726f626c656d73"], ["7573", "657273", "7573657273"], ["6c65", "78", "6c6578"], ["73756c", "74", "73756c74"], ["6d61", "6b65", "6d616b65"], ["616c73", "6f", "616c736f"], ["4e", "4c", "4e4c"], ["4e4c", "50", "4e4c50"], ["74", "6f6e", "746f6e"], ["73797374656d", "732c", "73797374656d732c"], ["6c6f67", "6973", "6c6f676973"], ["696d70726f", "7665", "696d70726f7665"], ["74", "6173", "746173"], ["746173", "6b", "7461736b"], ["696465", "6173", "6964656173"], ["6e6578742d", "67656e65726174696f6e", "6e6578742d67656e65726174696f6e"], ["67", "697665", "67697665"], ["6162696c", "697479", "6162696c697479"], ["76", "6973", "766973"], ["7072", "69", "707269"], ["6d6f", "74696f6e", "6d6f74696f6e"], ["706572666f726d616e6365", "2e", "706572666f726d616e63652e"], ["73", "656e73", "73656e73"], ["64617368626f617264", "732c", "64617368626f617264732c"], ["756c", "7469", "756c7469"], ["737472", "7563", "7374727563"], ["52", "45", "5245"], ["41", "74", "4174"], ["537573614c616273", "2c", "537573614c6162732c"], ["636f6d70616e79", "2c", "636f6d70616e792c"], ["76", "6172", "766172"], ["766172", "696f7573", "766172696f7573"], ["6c65", "6d656e74", "6c656d656e74"], ["646179", "2773", "6461792773"], ["62", "657374", "62657374"], ["656e", "6572", "656e6572"], ["48", "49", "4849"], ["4849", "50", "484950"], ["484950", "41", "48495041"], ["48495041", "41", "4849504141"], ["636f6d70", "6c69", "636f6d706c69"], ["6d61", "696e74656e", "6d61696e74656e"], ["636f", "7374", "636f7374"], ["696e74656772", "617465", "696e74656772617465"], ["696e74656772", "6174696f6e", "696e746567726174696f6e"], ["696e", "6573", "696e6573"], ["6175746f6d", "61746564", "6175746f6d61746564"], ["7768", "69", "776869"], ["6368", "61696e", "636861696e"], ["7472", "616e", "7472616e"], ["7472616e", "7370", "7472616e7370"], ["7472616e7370", "617265", "7472616e7370617265"], ["7472616e7370617265", "6e74", "7472616e73706172656e74"], ["6f72", "64", "6f7264"], ["6f70", "656e", "6f70656e"], ["656e", "61626c65", "656e61626c65"], ["7472616e73", "6163", "7472616e736163"], ["7472616e736163", "74696f6e73", "7472616e73616374696f6e73"], ["496e64", "75737472", "496e6475737472"], ["6f72", "79", "6f7279"], ["6175", "7468", "61757468"], ["697a", "6174696f6e2c", "697a6174696f6e2c"], ["776f726b666c6f77", "732e", "776f726b666c6f77732e"], ["7370656369616c", "697a65", "7370656369616c697a65"], ["6578", "697374696e67", "6578697374696e67"], ["537472", "61746567", "53747261746567"], ["6f72", "67", "6f7267"], ["6f7267", "616e", "6f7267616e"], ["6f7267616e", "697a", "6f7267616e697a"], ["6f", "696e", "6f696e"], ["7769", "6465", "77696465"], ["656e74", "72", "656e7472"], ["656e7472", "616c", "656e7472616c"], ["70", "6f72", "706f72"], ["6f7065726174696f6e73", "2e", "6f7065726174696f6e732e"], ["4d", "616e", "4d616e"], ["55", "6e", "556e"], ["47", "726f77", "47726f77"], ["47", "6574", "476574"], ["41", "63", "4163"], ["6f6e", "67", "6f6e67"], ["75", "726f", "75726f"], ["696e746572", "6e", "696e7465726e"], ["64657369676e", "2c", "64657369676e2c"], ["75", "7465", "757465"], ["62", "7574", "627574"], ["636f", "70", "636f70"], ["636f70", "79", "636f7079"], ["6d616e", "75616c", "6d616e75616c"], ["30", "34", "3034"], ["77", "6e", "776e"], ["6d65", "65", "6d6565"], ["6d6565", "74696e67", "6d656574696e67"], ["726563", "74", "72656374"], ["32", "34", "3234"], ["7475", "6e", "74756e"], ["697469", "6573", "6974696573"], ["776f726b", "73", "776f726b73"], ["6365", "70", "636570"], ["696e74656772", "6174696f6e73", "696e746567726174696f6e73"], ["52", "4f", "524f"], ["524f", "49", "524f49"], ["63686174626f", "7473", "63686174626f7473"], ["73", "6572", "736572"], ["736572", "76696365", "73657276696365"], ["2d", "746865", "2d746865"], ["2d746865", "2d", "2d7468652d"], ["416e64726f69", "64", "416e64726f6964"], ["2d", "666972", "2d666972"], ["2d666972", "7374", "2d6669727374"], ["2d", "6672", "2d6672"], ["696e", "65732c", "696e65732c"], ["636f6d6d756e", "6963", "636f6d6d756e6963"], ["74", "732c", "74732c"], ["726f7373", "2d", "726f73732d"], ["61", "7365", "617365"], ["6578", "706c", "6578706c"], ["6578706c", "6f72696e67", "6578706c6f72696e67"], ["6c69", "6d696e", "6c696d696e"], ["616e616c79", "746963732c", "616e616c79746963732c"], ["49", "53", "4953"], ["2d", "7370656369666963", "2d7370656369666963"], ["7175", "616e74756d", "7175616e74756d"], ["636f6d70", "7574", "636f6d707574"], ["6174", "746572", "6174746572"], ["6d", "697365", "6d697365"], ["72", "617465", "72617465"], ["7379", "6e657267", "73796e657267"], ["636f", "64696e67", "636f64696e67"], ["707265", "63", "70726563"], ["70726563", "697365", "70726563697365"], ["63616e636572", "2d", "63616e6365722d"], ["6c6174", "657374", "6c6174657374"], ["6f", "74686572", "6f74686572"], ["656c656374726f", "6465", "656c656374726f6465"], ["616c676f72697468", "6d73", "616c676f726974686d73"], ["756e6465727374616e64", "696e67", "756e6465727374616e64696e67"], ["696e746572", "66616365", "696e74657266616365"], ["61636375726163", "79", "6163637572616379"], ["42", "6566", "426566"], ["426566", "6f7265", "4265666f7265"], ["5265", "7461696c2c", "52657461696c2c"], ["68656c70", "696e67", "68656c70696e67"], ["4172", "746966696369616c", "4172746966696369616c"], ["636f6d70", "65", "636f6d7065"], ["636f6d62", "696e65", "636f6d62696e65"], ["70726f63657373", "696e672c", "70726f63657373696e672c"], ["76", "616c", "76616c"], ["75", "65", "7565"], ["657870657269656e63", "65732e", "657870657269656e6365732e"], ["6963", "732c", "6963732c"], ["636f", "7265", "636f7265"], ["6f7065726174696f6e73", "2c", "6f7065726174696f6e732c"], ["6c79", "2c", "6c792c"], ["6c65", "766572", "6c65766572"], ["626f", "7468", "626f7468"], ["67", "6170", "676170"], ["696e6e6f76", "6174", "696e6e6f766174"], ["696e6e6f766174", "6f7273", "696e6e6f7661746f7273"], ["667574757265", "2d", "6675747572652d"], ["6675747572652d", "7265616479", "6675747572652d7265616479"], ["61", "66", "6166"], ["67", "726f75", "67726f75"], ["746865", "79", "74686579"], ["6c656164", "696e67", "6c656164696e67"], ["696e6e6f76", "6174696f6e", "696e6e6f766174696f6e"], ["6f6f", "676c65", "6f6f676c65"], ["4c", "6574", "4c6574"], ["70", "6f776572", "706f776572"], ["6164", "6170", "61646170"], ["61646170", "74", "6164617074"], ["617373", "697374", "617373697374"], ["696e636c", "7564", "696e636c7564"], ["696e636c7564", "696e67", "696e636c7564696e67"], ["66756c6c", "2d", "66756c6c2d"], ["656e67696e65", "657273", "656e67696e65657273"], ["7072", "6163", "70726163"], ["2d", "6f66", "2d6f66"], ["6d61", "6b", "6d616b"], ["6d616b", "6573", "6d616b6573"], ["76", "6573", "766573"], ["776f726b666c6f77", "73", "776f726b666c6f7773"], ["7175", "65", "717565"], ["736f6c", "7665", "736f6c7665"], ["6974", "2773", "69742773"], ["696e636c75", "6465", "696e636c756465"], ["706c", "616e", "706c616e"], ["6d", "6572", "6d6572"], ["6e656564", "73", "6e65656473"], ["73", "616c", "73616c"], ["73616c", "65732c", "73616c65732c"], ["6b65", "6570", "6b656570"], ["637573746f6d", "657273", "637573746f6d657273"], ["6865", "616c7468", "6865616c7468"], ["70", "6563", "706563"], ["706563", "69616c", "70656369616c"], ["6164", "6469", "61646469"], ["756c", "6172", "756c6172"], ["4149", "2c", "41492c"], ["64617461", "2e", "646174612e"], ["616e", "7473", "616e7473"], ["636c69656e74", "73", "636c69656e7473"], ["68", "61", "6861"], ["726561", "6368", "7265616368"], ["696e", "76", "696e76"], ["637265", "6174696e67", "6372656174696e67"], ["7769", "6c6c", "77696c6c"], ["636170", "74757265", "63617074757265"], ["7375", "62", "737562"], ["6d", "696c", "6d696c"], ["6d696c", "6c69", "6d696c6c69"], ["6d696c6c69", "6d65", "6d696c6c696d65"], ["6d696c6c696d65", "746572", "6d696c6c696d65746572"], ["61", "7468", "617468"], ["6e65", "7477", "6e657477"], ["636f6e6e6563", "746564", "636f6e6e6563746564"], ["6368", "616e", "6368616e"], ["67", "617465", "67617465"], ["67617465", "776179", "67617465776179"], ["656e", "61626c", "656e61626c"], ["656e61626c", "696e67", "656e61626c696e67"], ["756c7469", "2d", "756c74692d"], ["6675", "6e", "66756e"], ["66756e", "63", "66756e63"], ["636f6d70", "6c6578", "636f6d706c6578"], ["54", "45", "5445"], ["45", "4e", "454e"], ["7472", "7573", "74727573"], ["74727573", "746564", "74727573746564"], ["69", "61", "6961"], ["6f7074696d", "697a65", "6f7074696d697a65"], ["746f", "6461792773", "746f6461792773"], ["656e7465727072697365", "2d", "656e74657270726973652d"], ["656e74657270726973652d", "6772", "656e74657270726973652d6772"], ["656e74657270726973652d6772", "61", "656e74657270726973652d677261"], ["656e74657270726973652d677261", "6465", "656e74657270726973652d6772616465"], ["6170706c69636174696f6e73", "2e", "6170706c69636174696f6e732e"], ["68", "6f", "686f"], ["696e", "6672", "696e6672"], ["7374727563", "74757265", "737472756374757265"], ["6d61696e74656e", "616e6365", "6d61696e74656e616e6365"], ["41", "75", "4175"], ["4175", "746f6d", "4175746f6d"], ["70", "6970", "706970"], ["706970", "656c", "706970656c"], ["54", "61", "5461"], ["5461", "696c6f726564", "5461696c6f726564"], ["5472", "616e73", "5472616e73"], ["5472616e73", "666f726d", "5472616e73666f726d"], ["75", "6365", "756365"], ["636c61", "696d", "636c61696d"], ["30", "25", "3025"], ["776869", "6c65", "7768696c65"], ["6c6f636b", "636861696e", "6c6f636b636861696e"], ["70726f", "6f66", "70726f6f66"], ["726563", "6f7264", "7265636f7264"], ["697469", "65732e", "69746965732e"], ["6973", "68", "697368"], ["697368", "6564", "6973686564"], ["636f", "67", "636f67"], ["636f67", "6e", "636f676e"], ["7265", "67", "726567"], ["726567", "756c", "726567756c"], ["45", "76657279", "4576657279"], ["73", "6372", "736372"], ["6174", "6368", "61746368"], ["53747261746567", "6963", "537472617465676963"], ["6f7267616e697a", "6174696f6e73", "6f7267616e697a6174696f6e73"], ["70", "617274", "70617274"], ["64656c69", "76657273", "64656c6976657273"], ["4a", "6f696e", "4a6f696e"], ["7468", "616e", "7468616e"], ["6c6563", "7472", "6c65637472"], ["6c65637472", "6f6e", "6c656374726f6e"], ["776f726c64", "77696465", "776f726c6477696465"], ["6d61726b65", "74696e67", "6d61726b6574696e67"], ["636f6e74", "656e74", "636f6e74656e74"], ["54", "6f", "546f"], ["47726f77", "7468", "47726f777468"], ["4163", "6365", "41636365"], ["41636365", "6c", "416363656c"], ["416363656c", "6572", "416363656c6572"], ["416363656c6572", "617465", "416363656c6572617465"], ["456e746572", "707269736573", "456e746572707269736573"], ["4d", "65", "4d65"], ["4d65", "6574", "4d656574"], ["4578706572", "7473", "45787065727473"], ["42", "65", "4265"], ["4265", "68", "426568"], ["426568", "696e64", "426568696e64"], ["7265", "707265", "7265707265"], ["6669", "6564", "66696564"], ["6174696f6e", "616c", "6174696f6e616c"], ["6578", "6563", "65786563"], ["49", "66", "4966"], ["627574", "746f6e", "627574746f6e"], ["646f", "6573", "646f6573"], ["776f726b", "2c", "776f726b2c"], ["636f6e", "73756c74", "636f6e73756c74"], ["50", "6572", "506572"], ["617265", "2c", "6172652c"], ["6f77", "6e", "6f776e"], ["69", "2c", "692c"], ["7265", "65", "726565"], ["6469", "72656374", "646972656374"], ["77697468", "696e", "77697468696e"], ["7368", "6170", "73686170"], ["73686170", "65", "7368617065"], ["6661", "73742d", "666173742d"], ["706572666f726d", "616e63652c", "706572666f726d616e63652c"], ["6576657279", "7468", "65766572797468"], ["65766572797468", "696e67", "65766572797468696e67"], ["7465", "78", "746578"], ["737570706f7274", "2c", "737570706f72742c"], ["696e7465726e", "616c", "696e7465726e616c"], ["75736572", "2d6672", "757365722d6672"], ["757365722d6672", "69656e", "757365722d667269656e"], ["757365722d667269656e", "64", "757365722d667269656e64"], ["757365722d667269656e64", "6c79", "757365722d667269656e646c79"], ["646f63", "75", "646f6375"], ["646f6375", "6d656e74", "646f63756d656e74"], ["6963", "65", "696365"], ["4d", "616368", "4d616368"], ["706f72", "74", "706f7274"], ["706f7274", "616c", "706f7274616c"], ["636f6e", "636570", "636f6e636570"], ["636f6e636570", "74", "636f6e63657074"], ["6261636b", "656e64", "6261636b656e64"], ["68", "6173", "686173"], ["64617368626f617264", "73", "64617368626f61726473"], ["617070", "2c", "6170702c"], ["44", "6563", "446563"], ["656e7472616c", "697a6564", "656e7472616c697a6564"], ["62", "75", "6275"], ["7468", "6973", "74686973"], ["73", "696e67", "73696e67"], ["6e656564", "732e", "6e656564732e"], ["746f", "70", "746f70"], ["496f54", "2c", "496f542c"], ["656e", "6372", "656e6372"], ["656e6372", "79", "656e637279"], ["656e637279", "70", "656e63727970"], ["6865", "7265", "68657265"], ["69", "62696c", "6962696c"], ["6962696c", "697479", "6962696c697479"], ["6e", "696e67", "6e696e67"], ["6d6f6e", "6974", "6d6f6e6974"], ["6d6f6e6974", "6f72696e67", "6d6f6e69746f72696e67"], ["455250", "2c", "4552502c"], ["636f6d7075", "74696e67", "636f6d707574696e67"], ["6974", "73", "697473"], ["44", "6f", "446f"], ["427573696e657373", "3f", "427573696e6573733f"], ["7368", "6f75", "73686f75"], ["73686f75", "6c64", "73686f756c64"], ["57", "616e74", "57616e74"], ["5468", "696e6b", "5468696e6b"], ["4d6f", "62696c65", "4d6f62696c65"], ["63", "726f73732d", "63726f73732d"], ["4e", "6174697665", "4e6174697665"], ["746573", "74696e67", "74657374696e67"], ["55", "58", "5558"], ["746f", "7265", "746f7265"], ["637265", "6174696f6e2c", "6372656174696f6e2c"], ["5765", "277265", "5765277265"], ["70", "7573", "707573"], ["707573", "68", "70757368"], ["70757368", "696e67", "70757368696e67"], ["62", "6f756e64", "626f756e64"], ["626f756e64", "6172", "626f756e646172"], ["626f756e646172", "696573", "626f756e646172696573"], ["6f6e", "3a", "6f6e3a"], ["4e", "6f", "4e6f"], ["4e6f", "76656c", "4e6f76656c"], ["617263686974656374757265", "73", "61726368697465637475726573"], ["636f6e74726f", "6c6c", "636f6e74726f6c6c"], ["636f6e74726f6c6c", "61626c65", "636f6e74726f6c6c61626c65"], ["66726f6e7469", "657273", "66726f6e7469657273"], ["73796e74686573", "69732e", "73796e7468657369732e"], ["636f6c6c61626f72", "6174696f6e2c", "636f6c6c61626f726174696f6e2c"], ["6163", "63657373", "616363657373"], ["616363657373", "2c", "6163636573732c"], ["68656c70", "2e", "68656c702e"], ["69", "66", "6966"], ["5265", "766f6c7574696f6e", "5265766f6c7574696f6e"], ["5265766f6c7574696f6e", "617279", "5265766f6c7574696f6e617279"], ["70726563697365", "6c79", "707265636973656c79"], ["65", "6c696d696e", "656c696d696e"], ["656c696d696e", "617465", "656c696d696e617465"], ["52", "6563", "526563"], ["526563", "656e74", "526563656e74"], ["746865726170", "65", "74686572617065"], ["74686572617065", "75", "7468657261706575"], ["7468657261706575", "74696373", "746865726170657574696373"], ["37", "38", "3738"], ["3738", "25", "373825"], ["6d65", "7461", "6d657461"], ["6d657461", "7374", "6d6574617374"], ["6d6574617374", "61", "6d657461737461"], ["6d657461737461", "746963", "6d657461737461746963"], ["74756d6f72", "2d7370656369666963", "74756d6f722d7370656369666963"], ["6e65", "6f", "6e656f"], ["6e656f", "616e", "6e656f616e"], ["6e656f616e", "7469", "6e656f616e7469"], ["6e656f616e7469", "67656e", "6e656f616e746967656e"], ["76", "616363", "76616363"], ["76616363", "696e", "76616363696e"], ["76616363696e", "65732e", "76616363696e65732e"], ["4e", "6577", "4e6577"], ["6d6f6e", "7468", "6d6f6e7468"], ["6d6f6e7468", "73", "6d6f6e746873"], ["7765656b", "732c", "7765656b732c"], ["6372", "7563", "63727563"], ["63727563", "69616c", "6372756369616c"], ["6167", "67", "616767"], ["616767", "72657373", "61676772657373"], ["61676772657373", "697665", "61676772657373697665"], ["63616e63", "6572732e", "63616e636572732e"], ["4352", "4953", "43524953"], ["43524953", "5052", "435249535052"], ["435249535052", "2d6261736564", "4352495350522d6261736564"], ["6564", "6974", "65646974"], ["65646974", "696e67", "65646974696e67"], ["73686f77", "73", "73686f7773"], ["70726f", "6d697365", "70726f6d697365"], ["636f72", "726563", "636f72726563"], ["636f72726563", "74696e67", "636f7272656374696e67"], ["63616e6365722d", "64726976696e67", "63616e6365722d64726976696e67"], ["6d", "7574", "6d7574"], ["6d7574", "6174696f6e73", "6d75746174696f6e73"], ["7265616c2d74696d65", "2e", "7265616c2d74696d652e"], ["617070", "726f", "617070726f"], ["617070726f", "6163686573", "617070726f6163686573"], ["52", "65647563", "5265647563"], ["5265647563", "6564", "52656475636564"], ["746f", "78", "746f78"], ["746f78", "6963", "746f786963"], ["746f786963", "697479", "746f786963697479"], ["636f6d70", "61726564", "636f6d7061726564"], ["6368", "65", "636865"], ["636865", "6d6f", "6368656d6f"], ["6368656d6f", "74686572617079", "6368656d6f74686572617079"], ["57", "6f726b73", "576f726b73"], ["73796e657267", "6973", "73796e6572676973"], ["73796e6572676973", "746963616c", "73796e6572676973746963616c"], ["73796e6572676973746963616c", "6c79", "73796e6572676973746963616c6c79"], ["6f6e", "636f", "6f6e636f"], ["6f6e636f", "6c6f67", "6f6e636f6c6f67"], ["6f6e636f6c6f67", "79", "6f6e636f6c6f6779"], ["696e746572666163", "696e67", "696e746572666163696e67"], ["437572", "7265", "4375727265"], ["4375727265", "6e74", "43757272656e74"], ["62726561", "6b", "627265616b"], ["627265616b", "7468726f756768", "627265616b7468726f756768"], ["627265616b7468726f756768", "73", "627265616b7468726f75676873"], ["746563686e6f6c6f6779", "3a", "746563686e6f6c6f67793a"], ["39", "36", "3936"], ["3936", "25", "393625"], ["696e74656e", "74696f6e", "696e74656e74696f6e"], ["6465", "636f64696e67", "6465636f64696e67"], ["34", "78", "3478"], ["726568", "6162696c", "7265686162696c"], ["7265686162696c", "6974", "7265686162696c6974"], ["7265686162696c6974", "6174696f6e", "7265686162696c69746174696f6e"], ["7374", "726f", "7374726f"], ["7374726f", "6b65", "7374726f6b65"], ["45", "6172", "456172"], ["456172", "6c79", "4561726c79"], ["7365", "697a", "7365697a"], ["7365697a", "757265", "7365697a757265"], ["3330", "2d", "33302d"], ["33302d", "6d696e", "33302d6d696e"], ["33302d6d696e", "757465", "33302d6d696e757465"], ["77", "61726e", "7761726e"], ["7761726e", "696e67", "7761726e696e67"], ["70", "696f6e", "70696f6e"], ["70696f6e", "65", "70696f6e65"], ["70696f6e65", "6572696e67", "70696f6e656572696e67"], ["627261696e", "2d", "627261696e2d"], ["627261696e2d", "636f6d7075746572", "627261696e2d636f6d7075746572"], ["3132", "2b", "31322b"], ["756e646572", "77", "756e64657277"], ["756e64657277", "61792e", "756e6465727761792e"], ["6e65", "75726f", "6e6575726f"], ["6e6575726f", "746563686e6f6c6f6779", "6e6575726f746563686e6f6c6f6779"], ["506f", "7765726564", "506f7765726564"], ["5465", "6c65", "54656c65"], ["54656c65", "636f6d", "54656c65636f6d"], ["54656c65636f6d", "2c", "54656c65636f6d2c"], ["45", "6e657267", "456e657267"], ["456e657267", "792c", "456e657267792c"], ["46", "696e", "46696e"], ["46696e", "616e63652c", "46696e616e63652c"], ["45", "647563", "45647563"], ["45647563", "6174696f6e2c", "456475636174696f6e2c"], ["4865616c746863617265", "2c", "4865616c7468636172652c"], ["6c6561726e", "696e672c", "6c6561726e696e672c"], ["756e", "707265", "756e707265"], ["756e707265", "636564", "756e707265636564"], ["756e707265636564", "656e74", "756e707265636564656e74"], ["756e707265636564656e74", "6564", "756e707265636564656e746564"], ["76616c", "7565", "76616c7565"], ["616c", "69676e", "616c69676e"], ["676f616c", "732e", "676f616c732e"], ["4c65", "61726e", "4c6561726e"], ["44", "697665", "44697665"], ["6d6564", "6963", "6d65646963"], ["6d65646963", "696e65", "6d65646963696e65"], ["646f63", "74", "646f6374"], ["6f72", "732c", "6f72732c"], ["636c696e", "6963732c", "636c696e6963732c"], ["64617461", "2d64726976656e", "646174612d64726976656e"], ["666f637573", "6573", "666f6375736573"], ["696e74656772", "6174696e67", "696e746567726174696e67"], ["656e67", "6167656d656e742c", "656e676167656d656e742c"], ["7472656174", "6d656e742c", "74726561746d656e742c"], ["646961676e6f73", "746963732c", "646961676e6f73746963732c"], ["6c65766572", "6167", "6c657665726167"], ["656e67696e65", "6572696e67", "656e67696e656572696e67"], ["62726964", "67", "6272696467"], ["6272696467", "6573", "62726964676573"], ["63617265", "2e", "636172652e"], ["776f726b666c6f77", "732c", "776f726b666c6f77732c"], ["70", "657273", "70657273"], ["70657273", "6f6e", "706572736f6e"], ["706572736f6e", "616c", "706572736f6e616c"], ["6a6f75726e6579", "732c", "6a6f75726e6579732c"], ["6572", "2c", "65722c"], ["6372", "6166", "63726166"], ["67726f75", "6e64", "67726f756e64"], ["6d", "524e412d6261736564", "6d524e412d6261736564"], ["67", "6976", "676976"], ["676976", "696e67", "676976696e67"], ["73", "63", "7363"], ["7361", "7665", "73617665"], ["76", "65732e", "7665732e"], ["69", "626c65", "69626c65"], ["7573", "2e", "75732e"], ["7265766f6c7574696f6e", "697a", "7265766f6c7574696f6e697a"], ["7265766f6c7574696f6e697a", "696e67", "7265766f6c7574696f6e697a696e67"], ["747265", "6e64", "7472656e64"], ["6d", "524e41", "6d524e41"], ["746f", "6765", "746f6765"], ["746f6765", "74686572", "746f676574686572"], ["746f", "64", "746f64"], ["746f64", "61792e", "746f6461792e"], ["696e746572", "616374696f6e", "696e746572616374696f6e"], ["696e746572616374696f6e", "2e", "696e746572616374696f6e2e"], ["656172", "6c79", "6561726c79"], ["63686174626f", "74", "63686174626f74"], ["54656368", "6e6f6c6f67", "546563686e6f6c6f67"], ["546563686e6f6c6f67", "79", "546563686e6f6c6f6779"], ["7669", "6577", "76696577"], ["70726163", "746963616c", "70726163746963616c"], ["47", "6f6f676c65", "476f6f676c65"], ["5265", "6164", "52656164"], ["52656164", "79", "5265616479"], ["63726561", "74697665", "6372656174697665"], ["66756c6c2d", "7374", "66756c6c2d7374"], ["66756c6c2d7374", "61636b", "66756c6c2d737461636b"], ["756e69", "717565", "756e69717565"], ["7265616c2d", "776f726c64", "7265616c2d776f726c64"], ["7175", "6963", "71756963"], ["71756963", "6b", "717569636b"], ["666f637573", "6564", "666f6375736564"], ["65", "636f", "65636f"], ["65636f", "73797374656d732e", "65636f73797374656d732e"], ["6963", "68", "696368"], ["4d", "4c", "4d4c"], ["4e4c50", "29", "4e4c5029"], ["6465636973696f6e", "2d", "6465636973696f6e2d"], ["6465636973696f6e2d", "6d616b696e67", "6465636973696f6e2d6d616b696e67"], ["6465636973696f6e", "73", "6465636973696f6e73"], ["736d6172746572", "2c", "736d61727465722c"], ["7363616c61626c65", "2e", "7363616c61626c652e"], ["74", "7572", "747572"], ["747572", "6e", "7475726e"], ["6c6f676973", "74696373", "6c6f67697374696373"], ["726f75", "7465", "726f757465"], ["6175746f6d", "6174696e67", "6175746f6d6174696e67"], ["7461736b", "732e", "7461736b732e"], ["43524d", "73", "43524d73"], ["6d61", "6465", "6d616465"], ["6d616e", "6167", "6d616e6167"], ["67726f77", "696e67", "67726f77696e67"], ["75", "6368", "756368"], ["6f6e65", "2e", "6f6e652e"], ["62696f", "74656368", "62696f74656368"], ["6865616c7468", "74656368", "6865616c746874656368"], ["6573", "70656369616c", "657370656369616c"], ["657370656369616c", "6c79", "657370656369616c6c79"], ["617265", "6173", "6172656173"], ["6c6c", "696e672c", "6c6c696e672c"], ["77", "617264", "77617264"], ["766973", "75616c", "76697375616c"], ["736f667477617265", "2e", "736f6674776172652e"], ["6861", "7665", "68617665"], ["70", "65", "7065"], ["6c65", "2c", "6c652c"], ["746f6f6c", "732c", "746f6f6c732c"], ["6b6e6f77", "6c6564", "6b6e6f776c6564"], ["6b6e6f776c6564", "6765", "6b6e6f776c65646765"], ["77", "686574686572", "77686574686572"], ["627573696e657373", "2c", "627573696e6573732c"], ["746865", "6d", "7468656d"], ["636f", "6d65", "636f6d65"], ["70726f", "707269", "70726f707269"], ["70726f707269", "6574", "70726f7072696574"], ["70726f7072696574", "617279", "70726f7072696574617279"], ["63617074757265", "73", "6361707475726573"], ["616e616c79", "7a", "616e616c797a"], ["616e616c797a", "6573", "616e616c797a6573"], ["737562", "2d", "7375622d"], ["7375622d", "6d696c6c696d65746572", "7375622d6d696c6c696d65746572"], ["707265636973696f6e", "2c", "707265636973696f6e2c"], ["70726f7669", "64696e67", "70726f766964696e67"], ["617468", "6c65", "6174686c65"], ["6174686c65", "746573", "6174686c65746573"], ["636f", "6163686573", "636f6163686573"], ["616374696f6e", "61626c65", "616374696f6e61626c65"], ["65", "6c65", "656c65"], ["656c65", "76", "656c6576"], ["656c6576", "617465", "656c6576617465"], ["496e", "746572", "496e746572"], ["6e657477", "6f726b", "6e6574776f726b"], ["736d617274", "2c", "736d6172742c"], ["73656e73", "6f7273", "73656e736f7273"], ["70726f7669", "64", "70726f766964"], ["6c", "6179", "6c6179"], ["49", "4e", "494e"], ["45", "53", "4553"], ["4c", "4c", "4c4c"], ["496e64", "6961", "496e646961"], ["555341", "2c", "5553412c"], ["646576656c6f70", "657273", "646576656c6f70657273"], ["6675", "6c", "66756c"], ["496e7465", "6772", "496e74656772"], ["4d", "6564", "4d6564"], ["4d6564", "6963616c", "4d65646963616c"], ["49", "6d70", "496d70"], ["4578706572", "74", "457870657274"], ["67", "75", "6775"], ["61", "76", "6176"], ["7472616e73666f726d", "6174696f6e2e", "7472616e73666f726d6174696f6e2e"], ["6164", "64", "616464"], ["616464", "72657373", "61646472657373"], ["6368", "616c6c", "6368616c6c"], ["6368616c6c", "656e67", "6368616c6c656e67"], ["6275696c64", "73", "6275696c6473"], ["656e6572", "67", "656e657267"], ["696e636c75", "646573", "696e636c75646573"], ["2d", "636f6d706c69", "2d636f6d706c69"], ["2d636f6d706c69", "616e74", "2d636f6d706c69616e74"], ["686f", "7370", "686f7370"], ["686f7370", "6974616c", "686f73706974616c"], ["696d70", "616374", "696d70616374"], ["696e6672", "61", "696e667261"], ["696e667261", "737472756374757265", "696e667261737472756374757265"], ["63", "61", "6361"], ["6361", "7573696e67", "63617573696e67"], ["656e746572", "707269736573", "656e746572707269736573"], ["737472", "75", "73747275"], ["6f6c", "64", "6f6c64"], ["43", "6c6f", "436c6f"], ["436c6f", "7564", "436c6f7564"], ["7472616e73666f726d", "6174696f6e", "7472616e73666f726d6174696f6e"], ["6d", "6963", "6d6963"], ["6d6963", "726f", "6d6963726f"], ["6d6963726f", "7365727669636573", "6d6963726f7365727669636573"], ["6d", "6967", "6d6967"], ["697a", "6174696f6e", "697a6174696f6e"], ["696e", "75", "696e75"], ["696e75", "6f7573", "696e756f7573"], ["49", "2f", "492f"], ["696e73", "7572", "696e737572"], ["696e737572", "616e6365", "696e737572616e6365"], ["636c61", "69", "636c6169"], ["636c6169", "6d73", "636c61696d73"], ["726564", "756365", "726564756365"], ["6175", "64", "617564"], ["696d70726f", "76696e67", "696d70726f76696e67"], ["61636375726163", "792e", "61636375726163792e"], ["62", "6c6f636b636861696e", "626c6f636b636861696e"], ["7461", "6d70", "74616d70"], ["74616d70", "6572", "74616d706572"], ["74616d706572", "2d", "74616d7065722d"], ["74616d7065722d", "70726f6f66", "74616d7065722d70726f6f66"], ["737570706f72", "7473", "737570706f727473"], ["70726f", "746f", "70726f746f"], ["70726f746f", "636f6c", "70726f746f636f6c"], ["44", "6967", "446967"], ["6974697a", "65", "6974697a65"], ["666163", "74", "66616374"], ["496e6475737472", "79", "496e647573747279"], ["2d", "656e61626c65", "2d656e61626c65"], ["436f6d70", "726568656e73697665", "436f6d70726568656e73697665"], ["65647563", "6174696f6e", "656475636174696f6e"], ["73", "7475", "737475"], ["636170", "6162696c", "6361706162696c"], ["706c6174666f726d", "732c", "706c6174666f726d732c"], ["61757468", "6f72", "617574686f72"], ["61626c", "6973686564", "61626c6973686564"], ["6578706572", "74", "657870657274"], ["696e73696768", "74", "696e7369676874"], ["6c", "696e65", "6c696e65"], ["736372", "61746368", "73637261746368"], ["696e6475737472", "79", "696e647573747279"], ["676f", "766572", "676f766572"], ["676f766572", "6e", "676f7665726e"], ["676f7665726e", "6d656e74", "676f7665726e6d656e74"], ["68", "6970", "686970"], ["7465", "6c65", "74656c65"], ["74656c65", "636f6d6d756e", "74656c65636f6d6d756e"], ["74656c65636f6d6d756e", "69636174696f6e73", "74656c65636f6d6d756e69636174696f6e73"], ["696e", "697469", "696e697469"], ["696e697469", "617469", "696e697469617469"], ["52", "61", "5261"], ["45", "6c656374726f6e", "456c656374726f6e"], ["456c656374726f6e", "696373", "456c656374726f6e696373"], ["70726f6a656374", "732e", "70726f6a656374732e"], ["496e6475737472", "69616c", "496e647573747269616c"], ["656e", "63", "656e63"], ["696573", "2c", "6965732c"], ["7461", "6b65", "74616b65"], ["6578", "63656c6c", "657863656c6c"], ["6c", "6174696f6e73", "6c6174696f6e73"], ["4f", "2c", "4f2c"], ["6d61726b6574696e67", "2c", "6d61726b6574696e672c"], ["73", "6f63", "736f63"], ["736f63", "69616c", "736f6369616c"], ["556e", "6c6f636b", "556e6c6f636b"], ["50", "6f776572", "506f776572"], ["57", "697468", "57697468"], ["646961676e6f73", "74696373", "646961676e6f7374696373"], ["656e74", "7265707265", "656e747265707265"], ["656e747265707265", "6e65", "656e7472657072656e65"], ["656e7472657072656e65", "7572", "656e7472657072656e657572"], ["6d61726b65", "74", "6d61726b6574"], ["657874", "656e73697665", "657874656e73697665"], ["636f6d6d756e", "697479", "636f6d6d756e697479"], ["4f", "766572", "4f766572"], ["656172", "73", "65617273"], ["4d", "61726b65", "4d61726b65"], ["65786563", "75", "6578656375"], ["6963616c", "6c79", "6963616c6c79"], ["6d", "62", "6d62"], ["616e73", "77", "616e7377"], ["616e7377", "657273", "616e7377657273"], ["436f6e", "6e", "436f6e6e"], ["436f6e6e", "656374", "436f6e6e656374"], ["6c6f63", "6174696f6e73", "6c6f636174696f6e73"], ["36", "32", "3632"], ["3632", "35", "363235"], ["556e", "696f6e", "556e696f6e"], ["48", "696c", "48696c"], ["48696c", "6c", "48696c6c"], ["41", "6c", "416c"], ["416c", "7068", "416c7068"], ["416c7068", "617265", "416c7068617265"], ["416c7068617265", "74", "416c706861726574"], ["416c706861726574", "7461", "416c7068617265747461"], ["416c7068617265747461", "2c", "416c70686172657474612c"], ["47", "41", "4741"], ["3330", "30", "333030"], ["333030", "3034", "3330303034"], ["3330303034", "2c", "33303030342c"], ["44", "4c", "444c"], ["444c", "46", "444c46"], ["43", "4f", "434f"], ["434f", "5250", "434f5250"], ["434f5250", "4f", "434f52504f"], ["434f52504f", "52", "434f52504f52"], ["434f52504f52", "41", "434f52504f5241"], ["434f52504f5241", "5445", "434f52504f52415445"], ["47", "5245", "475245"], ["475245", "454e", "475245454e"], ["475245454e", "53", "475245454e53"], ["53", "6f75", "536f75"], ["536f75", "74686572", "536f7574686572"], ["536f7574686572", "6e", "536f75746865726e"], ["506572", "6970", "5065726970"], ["5065726970", "68", "506572697068"], ["506572697068", "6572", "5065726970686572"], ["5065726970686572", "616c", "5065726970686572616c"], ["37", "34", "3734"], ["3734", "41", "373441"], ["373441", "2c", "3734412c"], ["31323230", "3034", "313232303034"], ["5374", "616e64", "5374616e64"], ["5374616e64", "617264", "5374616e64617264"], ["4368", "6172", "43686172"], ["43686172", "7465", "436861727465"], ["436861727465", "726564", "436861727465726564"], ["546f776572", "2c", "546f7765722c"], ["4c65", "76656c", "4c6576656c"], ["35", "2c", "352c"], ["45", "6d61", "456d61"], ["456d61", "6172", "456d616172"], ["53", "7175", "537175"], ["537175", "6172652c", "5371756172652c"], ["44", "6f776e", "446f776e"], ["446f776e", "746f", "446f776e746f"], ["446f776e746f", "776e", "446f776e746f776e"], ["44", "7562", "447562"], ["447562", "61", "44756261"], ["44756261", "692c", "44756261692c"], ["55", "41", "5541"], ["5541", "45", "554145"], ["646f", "6f7273", "646f6f7273"], ["616c", "776179", "616c776179"], ["616c776179", "73", "616c77617973"], ["636f6e73756c74", "6174696f6e732e", "636f6e73756c746174696f6e732e"], ["73", "6368", "736368"], ["736368", "6564", "7363686564"], ["7363686564", "75", "736368656475"], ["736368656475", "6c65", "7363686564756c65"], ["646f6573", "6e2774", "646f65736e2774"], ["6665", "656c", "6665656c"], ["66", "726565", "66726565"], ["73", "656e64", "73656e64"], ["707265", "66", "70726566"], ["70726566", "6572", "707265666572"], ["707265666572", "726564", "707265666572726564"], ["6c", "696e6b", "6c696e6b"], ["726573706f6e", "64", "726573706f6e64"], ["68", "6f7572", "686f7572"], ["686f7572", "732e", "686f7572732e"], ["496e6e6f76", "6174696f6e73", "496e6e6f766174696f6e73"], ["636f6d7065", "7469", "636f6d70657469"], ["636f6d70657469", "74697665", "636f6d7065746974697665"], ["62", "656e", "62656e"], ["62656e", "6566", "62656e6566"], ["62656e6566", "6974", "62656e65666974"], ["62656e65666974", "732c", "62656e65666974732c"], ["70726f6a656374", "732c", "70726f6a656374732c"], ["6f", "70706f72", "6f70706f72"], ["6f70706f72", "74756e", "6f70706f7274756e"], ["6f70706f7274756e", "6974696573", "6f70706f7274756e6974696573"], ["5765", "62", "576562"], ["6f6c", "76696e67", "6f6c76696e67"], ["776562", "2c", "7765622c"], ["64657369676e", "73", "64657369676e73"], ["63", "6c65", "636c65"], ["756e69", "66696564", "756e6966696564"], ["6d65", "6173", "6d656173"], ["6d656173", "7572", "6d6561737572"], ["6d6561737572", "61626c65", "6d656173757261626c65"], ["6d", "696e64", "6d696e64"], ["617373697374", "616e7473", "617373697374616e7473"], ["746578", "742c", "746578742c"], ["3234", "2f", "32342f"], ["32342f", "37", "32342f37"], ["42", "75696c74", "4275696c74"], ["617465", "2d6f66", "6174652d6f66"], ["6174652d6f66", "2d7468652d", "6174652d6f662d7468652d"], ["6174652d6f662d7468652d", "617274", "6174652d6f662d7468652d617274"], ["64657669636573", "2e", "646576696365732e"], ["636f6e", "7375", "636f6e7375"], ["636f6e7375", "6d6572", "636f6e73756d6572"], ["656e73757265", "73", "656e7375726573"], ["696e", "7475", "696e7475"], ["696e7475", "69", "696e747569"], ["696e747569", "74697665", "696e74756974697665"], ["7369", "7465", "73697465"], ["496e74656c6c6967", "656e74", "496e74656c6c6967656e74"], ["707269", "6f72", "7072696f72"], ["7072696f72", "6974697a", "7072696f726974697a"], ["7265", "636f6d6d", "7265636f6d6d"], ["7265636f6d6d", "656e64", "7265636f6d6d656e64"], ["7265636f6d6d656e64", "6174696f6e", "7265636f6d6d656e646174696f6e"], ["616e616c79", "746963", "616e616c79746963"], ["616e616c79746963", "732e", "616e616c79746963732e"], ["706970656c", "696e65732c", "706970656c696e65732c"], ["6d6f64", "756c", "6d6f64756c"], ["415049", "732c", "415049732c"], ["7265", "7175", "72657175"], ["72657175", "657374", "72657175657374"], ["72657175657374", "732c", "72657175657374732c"], ["76", "6f", "766f"], ["766f", "696365", "766f696365"], ["7265", "636f676e", "7265636f676e"], ["7265647563", "74696f6e", "726564756374696f6e"], ["6d65", "7472", "6d657472"], ["53", "706f", "53706f"], ["74", "6c", "746c"], ["456e", "61626c65", "456e61626c65"], ["53", "6563", "536563"], ["48", "52", "4852"], ["62696c", "6c", "62696c6c"], ["726567756c", "6174", "726567756c6174"], ["726567756c6174", "6f7279", "726567756c61746f7279"], ["7265", "6c69", "72656c69"], ["72656c69", "61626c65", "72656c6961626c65"], ["4c6574", "2773", "4c65742773"], ["646973", "63", "64697363"], ["64697363", "7573", "646973637573"], ["646973637573", "73", "64697363757373"], ["6c6564", "67", "6c656467"], ["6c656467", "657273", "6c656467657273"], ["7472", "616374", "7472616374"], ["6174", "6573", "61746573"], ["646973", "7472", "6469737472"], ["6469737472", "69", "646973747269"], ["646973747269", "6275", "6469737472696275"], ["63", "656e7472616c697a6564", "63656e7472616c697a6564"], ["616e", "63", "616e63"], ["6c65", "67", "6c6567"], ["73696e67", "6c65", "73696e676c65"], ["636f6e74726f", "6c", "636f6e74726f6c"], ["41", "67", "4167"], ["7068", "79", "706879"], ["706879", "73", "70687973"], ["666972", "6d", "6669726d"], ["6669726d", "77", "6669726d77"], ["6d", "756c74692d", "6d756c74692d"], ["6d756c74692d", "74656e", "6d756c74692d74656e"], ["70", "7574", "707574"], ["61757468", "656e", "61757468656e"], ["61757468656e", "746963", "61757468656e746963"], ["61757468656e746963", "6174696f6e2c", "61757468656e7469636174696f6e2c"], ["656e63727970", "74696f6e2c", "656e6372797074696f6e2c"], ["47", "44", "4744"], ["4744", "5052", "47445052"], ["6f7074696d", "697a6174696f6e2c", "6f7074696d697a6174696f6e2c"], ["616c", "6572", "616c6572"], ["766973", "6962696c697479", "7669736962696c697479"], ["6465706c6f796d656e74", "2e", "6465706c6f796d656e742e"], ["67617465776179", "732c", "67617465776179732c"], ["6572", "72", "657272"], ["48", "7562", "487562"], ["636f6d70", "616e", "636f6d70616e"], ["7265", "6d6f", "72656d6f"], ["72656d6f", "7465", "72656d6f7465"], ["69656e6365", "2c", "69656e63652c"], ["6973", "6f6c", "69736f6c"], ["506f", "73742d", "506f73742d"], ["6c61756e6368", "2c", "6c61756e63682c"], ["7570", "646174", "7570646174"], ["66696e", "65", "66696e65"], ["636f6d706c69", "616e6365", "636f6d706c69616e6365"], ["6d65", "6368616e", "6d656368616e"], ["51", "75", "5175"], ["5175", "616e74756d", "5175616e74756d"], ["7375", "706572", "7375706572"], ["7375706572", "706f", "7375706572706f"], ["7375706572706f", "7369", "7375706572706f7369"], ["7375706572706f7369", "74696f6e", "7375706572706f736974696f6e"], ["7370", "65", "737065"], ["737065", "6564", "7370656564"], ["696d", "6167", "696d6167"], ["636c", "617373", "636c617373"], ["636c617373", "6963616c", "636c6173736963616c"], ["636f6d707574", "6572732e", "636f6d7075746572732e"], ["70", "6172", "706172"], ["746963", "6c", "7469636c"], ["7469636c", "6573", "7469636c6573"], ["6578706572", "7473", "65787065727473"], ["61626c65", "2e", "61626c652e"], ["54686174", "2773", "546861742773"], ["77", "68657265", "7768657265"], ["49", "74", "4974"], ["6c", "616e", "6c616e"], ["6272696e67", "73", "6272696e6773"], ["7375", "7070", "73757070"], ["73797374656d", "2e", "73797374656d2e"], ["7363616c", "6162696c697479", "7363616c6162696c697479"], ["7363616c6162696c697479", "2c", "7363616c6162696c6974792c"], ["636c6f7564", "2d6261736564", "636c6f75642d6261736564"], ["6f6e", "2d", "6f6e2d"], ["7265", "6672", "72656672"], ["72656672", "616d", "72656672616d"], ["66756e63", "74696f6e616c", "66756e6374696f6e616c"], ["63", "6b", "636b"], ["455250", "3f", "4552503f"], ["74696f6e", "2e", "74696f6e2e"], ["70726f63657373", "6573", "70726f636573736573"], ["666f72", "6365", "666f726365"], ["31", "30", "3130"], ["746f", "6f", "746f6f"], ["746f6f", "2e", "746f6f2e"], ["6c", "6f6e67", "6c6f6e67"], ["6c6f6e67", "2d", "6c6f6e672d"], ["6c6f6e672d", "746572", "6c6f6e672d746572"], ["6c6f6e672d746572", "6d", "6c6f6e672d7465726d"], ["53", "75", "5375"], ["5375", "70706f72", "537570706f72"], ["6e6f", "74", "6e6f74"], ["63726f73732d", "706c6174666f726d", "63726f73732d706c6174666f726d"], ["46", "6c", "466c"], ["466c", "7574", "466c7574"], ["466c7574", "746572", "466c7574746572"], ["5265", "616374", "5265616374"], ["7765", "277265", "7765277265"], ["616e64", "726f69", "616e64726f69"], ["616e64726f69", "642c", "616e64726f69642c"], ["69", "6f", "696f"], ["696f", "73", "696f73"], ["6f7074696d", "697a6564", "6f7074696d697a6564"], ["62", "6174746572", "626174746572"], ["626174746572", "792c", "626174746572792c"], ["7765", "6172", "77656172"], ["77656172", "61626c", "7765617261626c"], ["69", "50", "6950"], ["706572", "66", "70657266"], ["70657266", "656374", "70657266656374"], ["43524d", "2c", "43524d2c"], ["61646469", "74696f6e73", "6164646974696f6e73"], ["6164646974696f6e73", "2c", "6164646974696f6e732c"], ["47", "50", "4750"], ["616765", "2c", "6167652c"], ["6b65", "79", "6b6579"], ["53", "746f7265", "53746f7265"], ["53746f7265", "2c", "53746f72652c"], ["47", "656e6572", "47656e6572"], ["47656e6572", "6174697665", "47656e65726174697665"], ["6e6f", "76656c", "6e6f76656c"], ["6d6f", "6c6563", "6d6f6c6563"], ["67656e6572", "617465", "67656e6572617465"], ["7265616c", "6973", "7265616c6973"], ["7265616c6973", "746963", "7265616c6973746963"], ["4d6f", "64656c", "4d6f64656c"], ["4d6f64656c", "73", "4d6f64656c73"], ["4e", "65", "4e65"], ["636f6d6d756e6963", "6174696f6e", "636f6d6d756e69636174696f6e"], ["6172", "72", "617272"], ["617272", "6179", "6172726179"], ["6172726179", "73", "617272617973"], ["6465", "636f6465", "6465636f6465"], ["73", "69676e", "7369676e"], ["656c656374726f", "646573", "656c656374726f646573"], ["4b", "6e6f77", "4b6e6f77"], ["4b6e6f77", "73", "4b6e6f7773"], ["446f", "3a", "446f3a"], ["4d6167", "6963", "4d61676963"], ["50", "726564696374697665", "50726564696374697665"], ["4275696c64", "3a", "4275696c643a"], ["46", "75", "4675"], ["4675", "74757265", "467574757265"], ["52", "697365", "52697365"], ["41", "67656e", "4167656e"], ["4167656e", "746963", "4167656e746963"], ["4149", "3a", "41493a"], ["5768", "656e", "5768656e"], ["4d616368", "696e6573", "4d616368696e6573"], ["5374", "617274", "5374617274"], ["4d", "61", "4d61"], ["4d61", "6b696e67", "4d616b696e67"], ["546865", "6972", "5468656972"], ["4f", "776e", "4f776e"], ["446563", "6973696f6e", "4465636973696f6e"], ["4465636973696f6e", "73", "4465636973696f6e73"], ["76", "732e", "76732e"], ["4f", "66", "4f66"], ["4f66", "66", "4f6666"], ["4f6666", "2d7468652d", "4f66662d7468652d"], ["4f66662d7468652d", "53", "4f66662d7468652d53"], ["4f66662d7468652d53", "68656c", "4f66662d7468652d5368656c"], ["4f66662d7468652d5368656c", "66", "4f66662d7468652d5368656c66"], ["4f66662d7468652d5368656c66", "3a", "4f66662d7468652d5368656c663a"], ["57686174", "2773", "576861742773"], ["42", "657374", "42657374"]]}