{"target_vocab_size": 768, "pad_token": "<PAD>", "pad_token_id": 0, "vocab_size": 768, "tokens": {"0": "<PAD>", "1": "00", "2": "01", "3": "02", "4": "03", "5": "04", "6": "05", "7": "06", "8": "07", "9": "08", "10": "09", "11": "0a", "12": "0b", "13": "0c", "14": "0d", "15": "0e", "16": "0f", "17": "10", "18": "11", "19": "12", "20": "13", "21": "14", "22": "15", "23": "16", "24": "17", "25": "18", "26": "19", "27": "1a", "28": "1b", "29": "1c", "30": "1d", "31": "1e", "32": "1f", "33": "20", "34": "21", "35": "22", "36": "23", "37": "24", "38": "25", "39": "26", "40": "27", "41": "28", "42": "29", "43": "2a", "44": "2b", "45": "2c", "46": "2d", "47": "2e", "48": "2f", "49": "30", "50": "31", "51": "32", "52": "33", "53": "34", "54": "35", "55": "36", "56": "37", "57": "38", "58": "39", "59": "3a", "60": "3b", "61": "3c", "62": "3d", "63": "3e", "64": "3f", "65": "40", "66": "41", "67": "42", "68": "43", "69": "44", "70": "45", "71": "46", "72": "47", "73": "48", "74": "49", "75": "4a", "76": "4b", "77": "4c", "78": "4d", "79": "4e", "80": "4f", "81": "50", "82": "51", "83": "52", "84": "53", "85": "54", "86": "55", "87": "56", "88": "57", "89": "58", "90": "59", "91": "5a", "92": "5b", "93": "5c", "94": "5d", "95": "5e", "96": "5f", "97": "60", "98": "61", "99": "62", "100": "63", "101": "64", "102": "65", "103": "66", "104": "67", "105": "68", "106": "69", "107": "6a", "108": "6b", "109": "6c", "110": "6d", "111": "6e", "112": "6f", "113": "70", "114": "71", "115": "72", "116": "73", "117": "74", "118": "75", "119": "76", "120": "77", "121": "78", "122": "79", "123": "7a", "124": "7b", "125": "7c", "126": "7d", "127": "7e", "128": "7f", "129": "80", "130": "81", "131": "82", "132": "83", "133": "84", "134": "85", "135": "86", "136": "87", "137": "88", "138": "89", "139": "8a", "140": "8b", "141": "8c", "142": "8d", "143": "8e", "144": "8f", "145": "90", "146": "91", "147": "92", "148": "93", "149": "94", "150": "95", "151": "96", "152": "97", "153": "98", "154": "99", "155": "9a", "156": "9b", "157": "9c", "158": "9d", "159": "9e", "160": "9f", "161": "a0", "162": "a1", "163": "a2", "164": "a3", "165": "a4", "166": "a5", "167": "a6", "168": "a7", "169": "a8", "170": "a9", "171": "aa", "172": "ab", "173": "ac", "174": "ad", "175": "ae", "176": "af", "177": "b0", "178": "b1", "179": "b2", "180": "b3", "181": "b4", "182": "b5", "183": "b6", "184": "b7", "185": "b8", "186": "b9", "187": "ba", "188": "bb", "189": "bc", "190": "bd", "191": "be", "192": "bf", "193": "c0", "194": "c1", "195": "c2", "196": "c3", "197": "c4", "198": "c5", "199": "c6", "200": "c7", "201": "c8", "202": "c9", "203": "ca", "204": "cb", "205": "cc", "206": "cd", "207": "ce", "208": "cf", "209": "d0", "210": "d1", "211": "d2", "212": "d3", "213": "d4", "214": "d5", "215": "d6", "216": "d7", "217": "d8", "218": "d9", "219": "da", "220": "db", "221": "dc", "222": "dd", "223": "de", "224": "df", "225": "e0", "226": "e1", "227": "e2", "228": "e3", "229": "e4", "230": "e5", "231": "e6", "232": "e7", "233": "e8", "234": "e9", "235": "ea", "236": "eb", "237": "ec", "238": "ed", "239": "ee", "240": "ef", "241": "f0", "242": "f1", "243": "f2", "244": "f3", "245": "f4", "246": "f5", "247": "f6", "248": "f7", "249": "f8", "250": "f9", "251": "fa", "252": "fb", "253": "fc", "254": "fd", "255": "fe", "256": "ff", "257": "696e", "258": "7265", "259": "616e", "260": "6572", "261": "7469", "262": "656e", "263": "7573", "264": "6f6e", "265": "6573", "266": "6f72", "267": "7468", "268": "746f", "269": "6c6f", "270": "74696f6e", "271": "7665", "272": "616c", "273": "616e64", "274": "656e74", "275": "6f66", "276": "696e67", "277": "726f", "278": "666f72", "279": "6963", "280": "617265", "281": "7465", "282": "6465", "283": "6d656e74", "284": "7572", "285": "6162", "286": "6172", "287": "7477", "288": "746f6d", "289": "6f667477", "290": "6f667477617265", "291": "74696f6e73", "292": "76656c6f", "293": "76656c6f70", "294": "6c65", "295": "6174", "296": "76656c6f706d656e74", "297": "7573746f6d", "298": "6f6c", "299": "6368", "300": "7769", "301": "6973", "302": "6564", "303": "77697468", "304": "6f7572", "305": "766963", "306": "636f", "307": "6f6c75", "308": "4c6162", "309": "4c616273", "310": "736f6c75", "311": "7669636573", "312": "537573", "313": "53757361", "314": "537573614c616273", "315": "6e6f", "316": "736f6c7574696f6e73", "317": "65727669636573", "318": "657373", "319": "736f667477617265", "320": "7475", "321": "6d70", "322": "646576656c6f706d656e74", "323": "7070", "324": "6563", "325": "6967", "326": "7374", "327": "6174696f6e", "328": "437573746f6d", "329": "6365", "330": "7365727669636573", "331": "746865", "332": "6d6f", "333": "7573696e", "334": "7573696e657373", "335": "536f667477617265", "336": "4149", "337": "732c", "338": "6163", "339": "61626c65", "340": "6865", "341": "696c", "342": "4465", "343": "637573746f6d", "344": "657273", "345": "2020", "346": "446576656c6f706d656e74", "347": "6974", "348": "7472", "349": "7365", "350": "6e64", "351": "74697665", "352": "6f75", "353": "746572", "354": "6174696f6e73", "355": "70726f", "356": "726564", "357": "74656368", "358": "636f6d70", "359": "63616c", "360": "6578", "361": "6c69", "362": "617070", "363": "616e6365", "364": "706572", "365": "617465", "366": "6d73", "367": "796f7572", "368": "7563", "369": "6c6f67", "370": "627573696e657373", "371": "646573", "372": "7765", "373": "697665", "374": "6e6f76", "375": "656e73", "376": "6f6666", "377": "75696c", "378": "6173", "379": "6e6f6c6f67", "380": "746563686e6f6c6f67", "381": "616d", "382": "6167", "383": "6566", "384": "4352", "385": "75696c64", "386": "61727475", "387": "656374", "388": "6172747570", "389": "4f7572", "390": "736f6c7574696f6e732e", "391": "63616c61626c65", "392": "746563686e6f6c6f6779", "393": "6b696e67", "394": "617274", "395": "697479", "396": "616e79", "397": "43524d", "398": "7379", "399": "726f6d", "400": "7072", "401": "696f6e", "402": "74757265", "403": "6c6c", "404": "6f77", "405": "6e65", "406": "656666", "407": "6d65", "408": "6f6666657273", "409": "617274757073", "410": "616c7468", "411": "63617265", "412": "666f726d", "413": "74686174", "414": "697365", "415": "50726f", "416": "534d", "417": "456e64", "418": "7461", "419": "69676e", "420": "726f77", "421": "534d45", "422": "616c746863617265", "423": "69656e", "424": "6272", "425": "726561", "426": "7669", "427": "6174696f6e2c", "428": "737465", "429": "6675", "430": "706c", "431": "6174697665", "432": "7379737465", "433": "67726f77", "434": "6963616c", "435": "74696e67", "436": "69616c", "437": "496e", "438": "6973696f6e", "439": "706c6f", "440": "64657369676e", "441": "6472", "442": "6772", "443": "6d6f7265", "444": "696e6e6f76", "445": "746963", "446": "6175", "447": "697a", "448": "5765", "449": "5768", "450": "6e6572", "451": "766572", "452": "6865616c746863617265", "453": "74686572", "454": "6f7574", "455": "696768", "456": "7175", "457": "427573696e657373", "458": "63616e", "459": "792e", "460": "646576656c6f706d656e742c", "461": "732e", "462": "6164", "463": "7072697365", "464": "696c6f", "465": "7370", "466": "436f", "467": "7373", "468": "616e63652c", "469": "6174696e67", "470": "706c6174", "471": "757374", "472": "6665", "473": "696c6f726564", "474": "69636174696f6e73", "475": "596f7572", "476": "642c", "477": "696e7465", "478": "6d61", "479": "7375", "480": "657874", "481": "417070", "482": "6b65", "483": "67726f777468", "484": "70726f7669", "485": "66696e", "486": "706c6f79", "487": "6a656374", "488": "436f6d70", "489": "6765", "490": "69656e63", "491": "667574757265", "492": "636c", "493": "6d656e742c", "494": "6269", "495": "776f72", "496": "696465", "497": "7461696c6f726564", "498": "202020", "499": "6c69636174696f6e73", "500": "6465706c6f79", "501": "5374", "502": "456e", "503": "6c79", "504": "6172746e6572", "505": "6f6f", "506": "7363616c61626c65", "507": "5250", "508": "576879", "509": "7574", "510": "73797374656d73", "511": "4578", "512": "61726368", "513": "46726f6d", "514": "696e6e6f766174697665", "515": "726568", "516": "4275696c64", "517": "73742d", "518": "696573", "519": "636f6e", "520": "7473", "521": "73657276696365732c", "522": "66696e616e63652c", "523": "7572696e67", "524": "68696768", "525": "656e73697665", "526": "65647563", "527": "455250", "528": "436f6d70616e79", "529": "5465", "530": "647563", "531": "766973696f6e", "532": "6275696c64", "533": "64657369676e6564", "534": "6f776572", "535": "6170", "536": "62726561", "537": "796f75", "538": "6272696e67", "539": "456e746572", "540": "4368", "541": "726f7373", "542": "696e64", "543": "696e65", "544": "6472697665", "545": "6865616c7468636172652c", "546": "62696c65", "547": "776974686f7574", "548": "67656e", "549": "2d746f", "550": "2d746f2d", "551": "74696d65", "552": "656e737572696e67", "553": "726568656e73697665", "554": "5365727669636573", "555": "68656c", "556": "616765", "557": "757265", "558": "696e746572", "559": "54656368", "560": "616c697479", "561": "7374617274757073", "562": "6566666963", "563": "656666696369656e63", "564": "686967682d", "565": "496e6e6f76", "566": "43686f6f", "567": "43686f6f7365", "568": "6b2e", "569": "6465706c6f796d656e742c", "570": "726f62", "571": "726f62757374", "572": "6c6c6967", "573": "61726e", "574": "707265", "575": "666f726d73", "576": "63616e63", "577": "626f", "578": "627265616b696e67", "579": "6566666563", "580": "656666656374697665", "581": "4e657874", "582": "62616e", "583": "656666696369656e63792e", "584": "636f6d70726568656e73697665", "585": "7465616d", "586": "5374617274757073", "587": "456e7465727072697365", "588": "427573696e6573736573", "589": "5363616c61626c65", "590": "66666f72", "591": "66666f7264", "592": "7175616c697479", "593": "456e642d746f2d", "594": "64756374", "595": "6c696665", "596": "506172746e6572", "597": "68656c70", "598": "616e73", "599": "6578706572", "600": "646174", "601": "706c6174666f726d73", "602": "6175746f6d", "603": "6d616e", "604": "6d6f62696c65", "605": "736f6c7574696f6e732e2d", "606": "4170706c69636174696f6e73", "607": "534d4573", "608": "50726f6a656374", "609": "50726f6a6563743f", "610": "4166666f7264", "611": "4166666f726461626c65", "612": "636f73742d", "613": "636f73742d656666656374697665", "614": "534d45732c", "615": "686967682d7175616c697479", "616": "62616e6b2e", "617": "456e642d746f2d456e64", "618": "50726f64756374", "619": "6964656174696f6e", "620": "70726f7669646573", "621": "656475636174696f6e2c", "622": "6d6f72652c", "623": "496e6e6f766174696e67", "624": "6163726f7373", "625": "75737472", "626": "63657373", "627": "524e", "628": "524e41", "629": "776f726b", "630": "70706f72", "631": "66726f6d", "632": "617279", "633": "6179", "634": "64617461", "635": "2d62", "636": "61736564", "637": "63616e636572", "638": "65732c", "639": "756c", "640": "636f6d70616e79", "641": "636f6d", "642": "6f706572", "643": "756e", "644": "706f", "645": "2d6261736564", "646": "686574686572", "647": "496f", "648": "496f54", "649": "3132", "650": "70726f63657373", "651": "65732e", "652": "6976", "653": "616e616c", "654": "616e616c79", "655": "7265616c", "656": "736d", "657": "6661", "658": "2773", "659": "746563", "660": "61696e", "661": "52642c", "662": "696e6475737472", "663": "726f75", "664": "696e74656c6c6967", "665": "7472616e73", "666": "6c6561726e", "667": "637573746f6d6572", "668": "72657365", "669": "7265736561726368", "670": "737570706f72", "671": "57686574686572", "672": "617264", "673": "67656e6572", "674": "706572666f726d", "675": "6563746f72", "676": "6772616d", "677": "637265", "678": "6d6564", "679": "6f63", "680": "6f7065726174696f6e73", "681": "6672", "682": "747265", "683": "6265", "684": "697469", "685": "536563746f72", "686": "477572", "687": "47757275", "688": "477572756772616d", "689": "477572756772616d2c", "690": "48617279", "691": "48617279616e", "692": "48617279616e61", "693": "313232", "694": "31323230", "695": "546f776572", "696": "4d6167", "697": "64656c69", "698": "636c696e", "699": "696e74656772", "700": "656e67", "701": "6e656564", "702": "74696373", "703": "6d656e7473", "704": "277265", "705": "666163", "706": "7368", "707": "6f722c", "708": "5265", "709": "666963", "710": "64726976", "711": "7472656174", "712": "737570706f7274", "713": "6574", "714": "64656c", "715": "656e746572", "716": "7265616c2d", "717": "6f70", "718": "636f6c", "719": "6c6563", "720": "657374", "721": "61746564", "722": "73706563", "723": "4d61676e", "724": "4d61676e75", "725": "4d61676e756d", "726": "312c", "727": "387468", "728": "466c6f", "729": "466c6f6f722c", "730": "476f6c", "731": "476f6c66", "732": "436f7572", "733": "436f75727365", "734": "457874", "735": "3538", "736": "35382c", "737": "3132323031", "738": "313232303131", "739": "7765726564", "740": "6f66666572", "741": "65646765", "742": "696e6475737472696573", "743": "696e672c", "744": "756e64", "745": "756e646572", "746": "636564", "747": "41492d", "748": "6d65646963616c", "749": "697a65", "750": "6372", "751": "6c6162", "752": "76657279", "753": "5553", "754": "6974616c", "755": "7573696e67", "756": "636c696e6963616c", "757": "706572666f726d616e6365", "758": "736563", "759": "617469", "760": "726f69", "761": "637574", "762": "63757474696e67", "763": "627573696e6573736573", "764": "696e74656c6c6967656e74", "765": "676f", "766": "6469", "767": "616476"}, "merges": [["69", "6e", "696e"], ["72", "65", "7265"], ["61", "6e", "616e"], ["65", "72", "6572"], ["74", "69", "7469"], ["65", "6e", "656e"], ["75", "73", "7573"], ["6f", "6e", "6f6e"], ["65", "73", "6573"], ["6f", "72", "6f72"], ["74", "68", "7468"], ["74", "6f", "746f"], ["6c", "6f", "6c6f"], ["7469", "6f6e", "74696f6e"], ["76", "65", "7665"], ["61", "6c", "616c"], ["616e", "64", "616e64"], ["656e", "74", "656e74"], ["6f", "66", "6f66"], ["696e", "67", "696e67"], ["72", "6f", "726f"], ["66", "6f72", "666f72"], ["69", "63", "6963"], ["61", "7265", "617265"], ["74", "65", "7465"], ["64", "65", "6465"], ["6d", "656e74", "6d656e74"], ["75", "72", "7572"], ["61", "62", "6162"], ["61", "72", "6172"], ["74", "77", "7477"], ["746f", "6d", "746f6d"], ["6f66", "7477", "6f667477"], ["6f667477", "617265", "6f667477617265"], ["74696f6e", "73", "74696f6e73"], ["7665", "6c6f", "76656c6f"], ["76656c6f", "70", "76656c6f70"], ["6c", "65", "6c65"], ["61", "74", "6174"], ["76656c6f70", "6d656e74", "76656c6f706d656e74"], ["7573", "746f6d", "7573746f6d"], ["6f", "6c", "6f6c"], ["63", "68", "6368"], ["77", "69", "7769"], ["69", "73", "6973"], ["65", "64", "6564"], ["7769", "7468", "77697468"], ["6f", "7572", "6f7572"], ["76", "6963", "766963"], ["63", "6f", "636f"], ["6f6c", "75", "6f6c75"], ["4c", "6162", "4c6162"], ["4c6162", "73", "4c616273"], ["73", "6f6c75", "736f6c75"], ["766963", "6573", "7669636573"], ["53", "7573", "537573"], ["537573", "61", "53757361"], ["53757361", "4c616273", "537573614c616273"], ["6e", "6f", "6e6f"], ["736f6c75", "74696f6e73", "736f6c7574696f6e73"], ["6572", "7669636573", "65727669636573"], ["6573", "73", "657373"], ["73", "6f667477617265", "736f667477617265"], ["74", "75", "7475"], ["6d", "70", "6d70"], ["6465", "76656c6f706d656e74", "646576656c6f706d656e74"], ["70", "70", "7070"], ["65", "63", "6563"], ["69", "67", "6967"], ["73", "74", "7374"], ["61", "74696f6e", "6174696f6e"], ["43", "7573746f6d", "437573746f6d"], ["63", "65", "6365"], ["73", "65727669636573", "7365727669636573"], ["7468", "65", "746865"], ["6d", "6f", "6d6f"], ["7573", "696e", "7573696e"], ["7573696e", "657373", "7573696e657373"], ["53", "6f667477617265", "536f667477617265"], ["41", "49", "4149"], ["73", "2c", "732c"], ["61", "63", "6163"], ["6162", "6c65", "61626c65"], ["68", "65", "6865"], ["69", "6c", "696c"], ["44", "65", "4465"], ["63", "7573746f6d", "637573746f6d"], ["6572", "73", "657273"], ["20", "20", "2020"], ["4465", "76656c6f706d656e74", "446576656c6f706d656e74"], ["69", "74", "6974"], ["74", "72", "7472"], ["73", "65", "7365"], ["6e", "64", "6e64"], ["7469", "7665", "74697665"], ["6f", "75", "6f75"], ["74", "6572", "746572"], ["61", "74696f6e73", "6174696f6e73"], ["70", "726f", "70726f"], ["7265", "64", "726564"], ["7465", "6368", "74656368"], ["636f", "6d70", "636f6d70"], ["63", "616c", "63616c"], ["65", "78", "6578"], ["6c", "69", "6c69"], ["61", "7070", "617070"], ["616e", "6365", "616e6365"], ["70", "6572", "706572"], ["61", "7465", "617465"], ["6d", "73", "6d73"], ["79", "6f7572", "796f7572"], ["75", "63", "7563"], ["6c6f", "67", "6c6f67"], ["62", "7573696e657373", "627573696e657373"], ["64", "6573", "646573"], ["77", "65", "7765"], ["69", "7665", "697665"], ["6e6f", "76", "6e6f76"], ["656e", "73", "656e73"], ["6f66", "66", "6f6666"], ["75", "696c", "75696c"], ["61", "73", "6173"], ["6e6f", "6c6f67", "6e6f6c6f67"], ["74656368", "6e6f6c6f67", "746563686e6f6c6f67"], ["61", "6d", "616d"], ["61", "67", "6167"], ["65", "66", "6566"], ["43", "52", "4352"], ["75696c", "64", "75696c64"], ["6172", "7475", "61727475"], ["6563", "74", "656374"], ["61727475", "70", "6172747570"], ["4f", "7572", "4f7572"], ["736f6c7574696f6e73", "2e", "736f6c7574696f6e732e"], ["63616c", "61626c65", "63616c61626c65"], ["746563686e6f6c6f67", "79", "746563686e6f6c6f6779"], ["6b", "696e67", "6b696e67"], ["6172", "74", "617274"], ["6974", "79", "697479"], ["616e", "79", "616e79"], ["4352", "4d", "43524d"], ["73", "79", "7379"], ["726f", "6d", "726f6d"], ["70", "72", "7072"], ["69", "6f6e", "696f6e"], ["7475", "7265", "74757265"], ["6c", "6c", "6c6c"], ["6f", "77", "6f77"], ["6e", "65", "6e65"], ["6566", "66", "656666"], ["6d", "65", "6d65"], ["6f6666", "657273", "6f6666657273"], ["6172747570", "73", "617274757073"], ["616c", "7468", "616c7468"], ["63", "617265", "63617265"], ["666f72", "6d", "666f726d"], ["7468", "6174", "74686174"], ["6973", "65", "697365"], ["50", "726f", "50726f"], ["53", "4d", "534d"], ["45", "6e64", "456e64"], ["74", "61", "7461"], ["6967", "6e", "69676e"], ["726f", "77", "726f77"], ["534d", "45", "534d45"], ["616c7468", "63617265", "616c746863617265"], ["69", "656e", "69656e"], ["62", "72", "6272"], ["7265", "61", "726561"], ["76", "69", "7669"], ["6174696f6e", "2c", "6174696f6e2c"], ["73", "7465", "737465"], ["66", "75", "6675"], ["70", "6c", "706c"], ["61", "74697665", "6174697665"], ["7379", "737465", "7379737465"], ["67", "726f77", "67726f77"], ["6963", "616c", "6963616c"], ["74", "696e67", "74696e67"], ["69", "616c", "69616c"], ["49", "6e", "496e"], ["6973", "696f6e", "6973696f6e"], ["70", "6c6f", "706c6f"], ["646573", "69676e", "64657369676e"], ["64", "72", "6472"], ["67", "72", "6772"], ["6d6f", "7265", "6d6f7265"], ["696e", "6e6f76", "696e6e6f76"], ["7469", "63", "746963"], ["61", "75", "6175"], ["69", "7a", "697a"], ["57", "65", "5765"], ["57", "68", "5768"], ["6e", "6572", "6e6572"], ["76", "6572", "766572"], ["6865", "616c746863617265", "6865616c746863617265"], ["7468", "6572", "74686572"], ["6f75", "74", "6f7574"], ["6967", "68", "696768"], ["71", "75", "7175"], ["42", "7573696e657373", "427573696e657373"], ["63", "616e", "63616e"], ["79", "2e", "792e"], ["646576656c6f706d656e74", "2c", "646576656c6f706d656e742c"], ["73", "2e", "732e"], ["61", "64", "6164"], ["7072", "697365", "7072697365"], ["69", "6c6f", "696c6f"], ["73", "70", "7370"], ["43", "6f", "436f"], ["73", "73", "7373"], ["616e6365", "2c", "616e63652c"], ["6174", "696e67", "6174696e67"], ["706c", "6174", "706c6174"], ["7573", "74", "757374"], ["66", "65", "6665"], ["696c6f", "726564", "696c6f726564"], ["6963", "6174696f6e73", "69636174696f6e73"], ["59", "6f7572", "596f7572"], ["64", "2c", "642c"], ["696e", "7465", "696e7465"], ["6d", "61", "6d61"], ["73", "75", "7375"], ["6578", "74", "657874"], ["41", "7070", "417070"], ["6b", "65", "6b65"], ["67726f77", "7468", "67726f777468"], ["70726f", "7669", "70726f7669"], ["66", "696e", "66696e"], ["706c6f", "79", "706c6f79"], ["6a", "656374", "6a656374"], ["436f", "6d70", "436f6d70"], ["67", "65", "6765"], ["69656e", "63", "69656e63"], ["6675", "74757265", "667574757265"], ["63", "6c", "636c"], ["6d656e74", "2c", "6d656e742c"], ["62", "69", "6269"], ["77", "6f72", "776f72"], ["69", "6465", "696465"], ["7461", "696c6f726564", "7461696c6f726564"], ["2020", "20", "202020"], ["6c", "69636174696f6e73", "6c69636174696f6e73"], ["6465", "706c6f79", "6465706c6f79"], ["53", "74", "5374"], ["45", "6e", "456e"], ["6c", "79", "6c79"], ["617274", "6e6572", "6172746e6572"], ["6f", "6f", "6f6f"], ["73", "63616c61626c65", "7363616c61626c65"], ["52", "50", "5250"], ["5768", "79", "576879"], ["75", "74", "7574"], ["7379737465", "6d73", "73797374656d73"], ["45", "78", "4578"], ["6172", "6368", "61726368"], ["46", "726f6d", "46726f6d"], ["696e6e6f76", "6174697665", "696e6e6f766174697665"], ["7265", "68", "726568"], ["42", "75696c64", "4275696c64"], ["7374", "2d", "73742d"], ["69", "6573", "696573"], ["63", "6f6e", "636f6e"], ["74", "73", "7473"], ["7365727669636573", "2c", "73657276696365732c"], ["66696e", "616e63652c", "66696e616e63652c"], ["7572", "696e67", "7572696e67"], ["68", "696768", "68696768"], ["656e73", "697665", "656e73697665"], ["6564", "7563", "65647563"], ["45", "5250", "455250"], ["436f6d70", "616e79", "436f6d70616e79"], ["54", "65", "5465"], ["64", "7563", "647563"], ["76", "6973696f6e", "766973696f6e"], ["62", "75696c64", "6275696c64"], ["64657369676e", "6564", "64657369676e6564"], ["6f77", "6572", "6f776572"], ["61", "70", "6170"], ["62", "726561", "62726561"], ["79", "6f75", "796f75"], ["6272", "696e67", "6272696e67"], ["456e", "746572", "456e746572"], ["43", "68", "4368"], ["726f", "7373", "726f7373"], ["696e", "64", "696e64"], ["696e", "65", "696e65"], ["6472", "697665", "6472697665"], ["6865616c746863617265", "2c", "6865616c7468636172652c"], ["6269", "6c65", "62696c65"], ["77697468", "6f7574", "776974686f7574"], ["67", "656e", "67656e"], ["2d", "746f", "2d746f"], ["2d746f", "2d", "2d746f2d"], ["7469", "6d65", "74696d65"], ["656e73", "7572696e67", "656e737572696e67"], ["726568", "656e73697665", "726568656e73697665"], ["53", "65727669636573", "5365727669636573"], ["6865", "6c", "68656c"], ["6167", "65", "616765"], ["75", "7265", "757265"], ["696e", "746572", "696e746572"], ["5465", "6368", "54656368"], ["616c", "697479", "616c697479"], ["7374", "617274757073", "7374617274757073"], ["656666", "6963", "6566666963"], ["6566666963", "69656e63", "656666696369656e63"], ["68696768", "2d", "686967682d"], ["496e", "6e6f76", "496e6e6f76"], ["4368", "6f6f", "43686f6f"], ["43686f6f", "7365", "43686f6f7365"], ["6b", "2e", "6b2e"], ["6465706c6f79", "6d656e742c", "6465706c6f796d656e742c"], ["726f", "62", "726f62"], ["726f62", "757374", "726f62757374"], ["6c6c", "6967", "6c6c6967"], ["6172", "6e", "61726e"], ["70", "7265", "707265"], ["666f72", "6d73", "666f726d73"], ["63616e", "63", "63616e63"], ["62", "6f", "626f"], ["62726561", "6b696e67", "627265616b696e67"], ["656666", "6563", "6566666563"], ["6566666563", "74697665", "656666656374697665"], ["4e", "657874", "4e657874"], ["62", "616e", "62616e"], ["656666696369656e63", "792e", "656666696369656e63792e"], ["636f6d70", "726568656e73697665", "636f6d70726568656e73697665"], ["7465", "616d", "7465616d"], ["5374", "617274757073", "5374617274757073"], ["456e746572", "7072697365", "456e7465727072697365"], ["427573696e657373", "6573", "427573696e6573736573"], ["53", "63616c61626c65", "5363616c61626c65"], ["66", "666f72", "66666f72"], ["66666f72", "64", "66666f7264"], ["7175", "616c697479", "7175616c697479"], ["456e64", "2d746f2d", "456e642d746f2d"], ["647563", "74", "64756374"], ["6c69", "6665", "6c696665"], ["50", "6172746e6572", "506172746e6572"], ["68656c", "70", "68656c70"], ["616e", "73", "616e73"], ["6578", "706572", "6578706572"], ["64", "6174", "646174"], ["706c6174", "666f726d73", "706c6174666f726d73"], ["6175", "746f6d", "6175746f6d"], ["6d", "616e", "6d616e"], ["6d6f", "62696c65", "6d6f62696c65"], ["736f6c7574696f6e732e", "2d", "736f6c7574696f6e732e2d"], ["417070", "6c69636174696f6e73", "4170706c69636174696f6e73"], ["534d45", "73", "534d4573"], ["50726f", "6a656374", "50726f6a656374"], ["50726f6a656374", "3f", "50726f6a6563743f"], ["41", "66666f7264", "4166666f7264"], ["4166666f7264", "61626c65", "4166666f726461626c65"], ["636f", "73742d", "636f73742d"], ["636f73742d", "656666656374697665", "636f73742d656666656374697665"], ["534d45", "732c", "534d45732c"], ["686967682d", "7175616c697479", "686967682d7175616c697479"], ["62616e", "6b2e", "62616e6b2e"], ["456e642d746f2d", "456e64", "456e642d746f2d456e64"], ["50726f", "64756374", "50726f64756374"], ["696465", "6174696f6e", "6964656174696f6e"], ["70726f7669", "646573", "70726f7669646573"], ["65647563", "6174696f6e2c", "656475636174696f6e2c"], ["6d6f7265", "2c", "6d6f72652c"], ["496e6e6f76", "6174696e67", "496e6e6f766174696e67"], ["6163", "726f7373", "6163726f7373"], ["7573", "7472", "75737472"], ["63", "657373", "63657373"], ["52", "4e", "524e"], ["524e", "41", "524e41"], ["776f72", "6b", "776f726b"], ["7070", "6f72", "70706f72"], ["66", "726f6d", "66726f6d"], ["6172", "79", "617279"], ["61", "79", "6179"], ["646174", "61", "64617461"], ["2d", "62", "2d62"], ["6173", "6564", "61736564"], ["63616e63", "6572", "63616e636572"], ["6573", "2c", "65732c"], ["75", "6c", "756c"], ["636f6d70", "616e79", "636f6d70616e79"], ["636f", "6d", "636f6d"], ["6f", "706572", "6f706572"], ["75", "6e", "756e"], ["70", "6f", "706f"], ["2d62", "61736564", "2d6261736564"], ["6865", "74686572", "686574686572"], ["49", "6f", "496f"], ["496f", "54", "496f54"], ["31", "32", "3132"], ["70726f", "63657373", "70726f63657373"], ["6573", "2e", "65732e"], ["69", "76", "6976"], ["616e", "616c", "616e616c"], ["616e616c", "79", "616e616c79"], ["7265", "616c", "7265616c"], ["73", "6d", "736d"], ["66", "61", "6661"], ["27", "73", "2773"], ["7465", "63", "746563"], ["61", "696e", "61696e"], ["52", "642c", "52642c"], ["696e64", "75737472", "696e6475737472"], ["726f", "75", "726f75"], ["696e7465", "6c6c6967", "696e74656c6c6967"], ["7472", "616e73", "7472616e73"], ["6c65", "61726e", "6c6561726e"], ["637573746f6d", "6572", "637573746f6d6572"], ["7265", "7365", "72657365"], ["72657365", "61726368", "7265736561726368"], ["7375", "70706f72", "737570706f72"], ["57", "686574686572", "57686574686572"], ["6172", "64", "617264"], ["67656e", "6572", "67656e6572"], ["706572", "666f726d", "706572666f726d"], ["656374", "6f72", "6563746f72"], ["6772", "616d", "6772616d"], ["63", "7265", "637265"], ["6d", "6564", "6d6564"], ["6f", "63", "6f63"], ["6f706572", "6174696f6e73", "6f7065726174696f6e73"], ["66", "72", "6672"], ["74", "7265", "747265"], ["62", "65", "6265"], ["69", "7469", "697469"], ["53", "6563746f72", "536563746f72"], ["47", "7572", "477572"], ["477572", "75", "47757275"], ["47757275", "6772616d", "477572756772616d"], ["477572756772616d", "2c", "477572756772616d2c"], ["48", "617279", "48617279"], ["48617279", "616e", "48617279616e"], ["48617279616e", "61", "48617279616e61"], ["3132", "32", "313232"], ["313232", "30", "31323230"], ["54", "6f776572", "546f776572"], ["4d", "6167", "4d6167"], ["6465", "6c69", "64656c69"], ["636c", "696e", "636c696e"], ["696e7465", "6772", "696e74656772"], ["656e", "67", "656e67"], ["6e65", "6564", "6e656564"], ["746963", "73", "74696373"], ["6d656e74", "73", "6d656e7473"], ["27", "7265", "277265"], ["66", "6163", "666163"], ["73", "68", "7368"], ["6f72", "2c", "6f722c"], ["52", "65", "5265"], ["66", "6963", "666963"], ["6472", "6976", "64726976"], ["747265", "6174", "7472656174"], ["737570706f72", "74", "737570706f7274"], ["65", "74", "6574"], ["6465", "6c", "64656c"], ["656e74", "6572", "656e746572"], ["7265616c", "2d", "7265616c2d"], ["6f", "70", "6f70"], ["63", "6f6c", "636f6c"], ["6c65", "63", "6c6563"], ["6573", "74", "657374"], ["617465", "64", "61746564"], ["7370", "6563", "73706563"], ["4d6167", "6e", "4d61676e"], ["4d61676e", "75", "4d61676e75"], ["4d61676e75", "6d", "4d61676e756d"], ["31", "2c", "312c"], ["38", "7468", "387468"], ["46", "6c6f", "466c6f"], ["466c6f", "6f722c", "466c6f6f722c"], ["47", "6f6c", "476f6c"], ["476f6c", "66", "476f6c66"], ["43", "6f7572", "436f7572"], ["436f7572", "7365", "436f75727365"], ["4578", "74", "457874"], ["35", "38", "3538"], ["3538", "2c", "35382c"], ["31323230", "31", "3132323031"], ["3132323031", "31", "313232303131"], ["7765", "726564", "7765726564"], ["6f6666", "6572", "6f66666572"], ["6564", "6765", "65646765"], ["696e6475737472", "696573", "696e6475737472696573"], ["696e67", "2c", "696e672c"], ["75", "6e64", "756e64"], ["756e64", "6572", "756e646572"], ["63", "6564", "636564"], ["4149", "2d", "41492d"], ["6d6564", "6963616c", "6d65646963616c"], ["697a", "65", "697a65"], ["63", "72", "6372"], ["6c", "6162", "6c6162"], ["766572", "79", "76657279"], ["55", "53", "5553"], ["6974", "616c", "6974616c"], ["7573", "696e67", "7573696e67"], ["636c696e", "6963616c", "636c696e6963616c"], ["706572666f726d", "616e6365", "706572666f726d616e6365"], ["73", "6563", "736563"], ["61", "7469", "617469"], ["726f", "69", "726f69"], ["63", "7574", "637574"], ["637574", "74696e67", "63757474696e67"], ["627573696e657373", "6573", "627573696e6573736573"], ["696e74656c6c6967", "656e74", "696e74656c6c6967656e74"], ["67", "6f", "676f"], ["64", "69", "6469"], ["6164", "76", "616476"]]}